<unk>	0
<s>	0
</s>	0
en	-0
er	-1
▁d	-2
▁e	-3
nd	-4
▁t	-5
ch	-6
it	-7
▁s	-8
▁p	-9
▁n	-10
in	-11
▁m	-12
▁të	-13
is	-14
es	-15
et	-16
im	-17
▁a	-18
▁u	-19
▁k	-20
ër	-21
ie	-22
on	-23
ar	-24
ur	-25
he	-26
or	-27
▁b	-28
ng	-29
at	-30
..	-31
▁v	-32
▁r	-33
ës	-34
ung	-35
▁g	-36
ve	-37
al	-38
st	-39
▁për	-40
▁dhe	-41
▁z	-42
el	-43
ich	-44
▁në	-45
▁und	-46
▁w	-47
▁die	-48
▁der	-49
je	-50
kt	-51
an	-52
▁in	-53
ik	-54
▁f	-55
ro	-56
as	-57
▁i	-58
....	-59
em	-60
re	-61
us	-62
▁l	-63
▁(	-64
end	-65
ht	-66
▁2	-67
ion	-68
ig	-69
▁sh	-70
sh	-71
sch	-72
lich	-73
ol	-74
▁20	-75
▁nd	-76
ir	-77
▁ver	-78
te	-79
▁ein	-80
ja	-81
and	-82
▁h	-83
eve	-84
il	-85
▁um	-86
jed	-87
ra	-88
▁zu	-89
▁be	-90
elt	-91
isch	-92
und	-93
uar	-94
iv	-95
op	-96
▁gj	-97
ist	-98
jedis	-99
um	-100
ür	-101
▁me	-102
ore	-103
▁mjedis	-104
ut	-105
jë	-106
uf	-107
▁j	-108
bar	-109
welt	-110
om	-111
10	-112
ungen	-113
rop	-114
ten	-115
▁umwelt	-116
me	-117
hr	-118
▁si	-119
ll	-120
........	-121
gj	-122
▁q	-123
ck	-124
urop	-125
▁më	-126
▁ev	-127
▁evrop	-128
os	-129
▁aus	-130
▁re	-131
▁europ	-132
▁2010	-133
ga	-134
eit	-135
ekt	-136
id	-137
▁er	-138
imi	-139
rit	-140
ap	-141
ent	-142
ft	-143
sp	-144
▁nat	-145
le	-146
▁_	-147
▁den	-148
ry	-149
▁res	-150
▁ek	-151
ësht	-152
▁një	-153
▁von	-154
den	-155
lim	-156
▁kon	-157
▁an	-158
▁für	-159
ën	-160
men	-161
▁st	-162
ass	-163
lo	-164
▁pro	-165
▁nga	-166
icht	-167
imit	-168
ier	-169
bl	-170
imin	-171
imet	-172
▁auf	-173
oh	-174
).	-175
ber	-176
ët	-177
▁europa	-178
ischen	-179
iz	-180
anë	-181
ave	-182
ike	-183
ien	-184
ick	-185
ëm	-186
ënd	-187
ge	-188
▁mb	-189
nder	-190
ale	-191
ach	-192
▁per	-193
▁o	-194
scha	-195
gen	-196
ues	-197
dh	-198
▁–	-199
ter	-200
am	-201
ff	-202
▁evropës	-203
▁des	-204
jn	-205
▁bi	-206
uk	-207
jt	-208
jnë	-209
ben	-210
rysh	-211
▁di	-212
ot	-213
stand	-214
▁im	-215
og	-216
schaft	-217
▁ndrysh	-218
▁c	-219
është	-220
▁është	-221
▁klim	-222
jes	-223
yr	-224
▁mund	-225
ok	-226
der	-227
jet	-228
wir	-229
itet	-230
▁që	-231
▁së	-232
ia	-233
uch	-234
spekt	-235
ukt	-236
▁janë	-237
▁gjend	-238
▁se	-239
▁ö	-240
iva	-241
▁ge	-242
über	-243
▁wir	-244
ull	-245
▁zustand	-246
apit	-247
▁mjedisi	-248
un	-249
isë	-250
ith	-251
iel	-252
lichen	-253
▁perspekt	-254
ät	-255
▁ar	-256
▁un	-257
blick	-258
ener	-259
olit	-260
liche	-261
so	-262
▁1	-263
urs	-264
▁ges	-265
................	-266
ive	-267
imeve	-268
tschaft	-269
▁perspektiva	-270
aus	-271
ort	-272
▁gjendja	-273
▁ausblick	-274
▁ök	-275
urch	-276
▁rrit	-277
for	-278
ver	-279
▁mit	-280
ionen	-281
ah	-282
urc	-283
ri	-284
utz	-285
sourc	-286
▁ab	-287
▁sch	-288
asser	-289
▁kapit	-290
shme	-291
▁kom	-292
az	-293
ell	-294
ul	-295
▁men	-296
sourcen	-297
ere	-298
▁so	-299
jeve	-300
▁200	-301
ische	-302
▁glo	-303
heit	-304
istem	-305
ojnë	-306
od	-307
ein	-308
për	-309
jen	-310
aj	-311
▁uj	-312
stem	-313
▁glob	-314
dukt	-315
▁resurs	-316
be	-317
est	-318
hal	-319
ystem	-320
▁eine	-321
▁shum	-322
▁shk	-323
▁durch	-324
jer	-325
▁sind	-326
iss	-327
ungs	-328
▁über	-329
▁wer	-330
dor	-331
olog	-332
▁natyr	-333
▁ressourcen	-334
änder	-335
▁tr	-336
▁ist	-337
▁dies	-338
▁mjedisore	-339
all	-340
▁përdor	-341
▁tok	-342
mb	-343
ast	-344
▁par	-345
▁le	-346
gr	-347
▁eu	-348
▁duk	-349
▁te	-350
▁vor	-351
▁ne	-352
▁ener	-353
▁polit	-354
isht	-355
onom	-356
▁werden	-357
igen	-358
▁natür	-359
reg	-360
▁em	-361
▁kons	-362
▁ent	-363
uesh	-364
atë	-365
▁gr	-366
▁sich	-367
▁al	-368
ität	-369
▁shumë	-370
▁përf	-371
▁verb	-372
ind	-373
ing	-374
nen	-375
str	-376
▁zur	-377
▁wasser	-378
ime	-379
ze	-380
idh	-381
▁ja	-382
▁ma	-383
ende	-384
▁kapital	-385
▁duke	-386
▁ndik	-387
dhe	-388
iver	-389
▁cil	-390
▁de	-391
au	-392
ëndet	-393
të	-394
▁shëndet	-395
akt	-396
ial	-397
▁gjith	-398
ash	-399
de	-400
etz	-401
keit	-402
off	-403
res	-404
uara	-405
▁ekonom	-406
▁resurseve	-407
ic	-408
hen	-409
▁als	-410
▁nach	-411
inë	-412
▁lidh	-413
ige	-414
wirk	-415
▁jet	-416
▁das	-417
▁kët	-418
odiver	-419
utzung	-420
▁unter	-421
are	-422
▁ind	-423
▁wie	-424
andel	-425
▁mbet	-426
osystem	-427
ang	-428
ess	-429
▁ka	-430
▁rr	-431
▁zh	-432
ab	-433
ak	-434
▁ekos	-435
▁ndër	-436
▁biodiver	-437
▁ekosistem	-438
we	-439
ura	-440
ler	-441
uj	-442
ön	-443
atike	-444
stoff	-445
ill	-446
▁19	-447
ug	-448
ahmen	-449
▁auch	-450
fl	-451
är	-452
▁bei	-453
ib	-454
▁dis	-455
▁%	-456
▁mes	-457
▁vend	-458
wirtschaft	-459
▁ökosystem	-460
if	-461
ation	-462
▁jahr	-463
ne	-464
ktiv	-465
▁kön	-466
ks	-467
▁zus	-468
▁politik	-469
qës	-470
ëve	-471
▁nicht	-472
▁wirtschaft	-473
esh	-474
▁ef	-475
land	-476
▁land	-477
▁gesund	-478
wirkungen	-479
och	-480
teil	-481
▁klima	-482
form	-483
rez	-484
▁dem	-485
erung	-486
▁konsum	-487
▁es	-488
▁she	-489
▁einer	-490
▁global	-491
▁gesundheit	-492
wer	-493
▁ve	-494
▁her	-495
ammen	-496
▁tokës	-497
▁klimatike	-498
xh	-499
irë	-500
▁zw	-501
▁hin	-502
▁mensch	-503
▁bes	-504
▁llo	-505
elast	-506
▁rrez	-507
▁vler	-508
▁wird	-509
▁zhv	-510
gjith	-511
▁weit	-512
▁leben	-513
ult	-514
sten	-515
▁pas	-516
forder	-517
ektor	-518
00	-519
rä	-520
▁ç	-521
ate	-522
▁koh	-523
▁vit	-524
▁zusammen	-525
),	-526
asht	-527
▁mat	-528
▁edhe	-529
▁treg	-530
▁prodh	-531
ision	-532
jo	-533
ück	-534
▁all	-535
▁welt	-536
▁energj	-537
fä	-538
ss	-539
äng	-540
▁buj	-541
wandel	-542
▁shemb	-543
▁bujqës	-544
▁ökolog	-545
oz	-546
axh	-547
org	-548
halt	-549
igur	-550
oden	-551
▁ujit	-552
▁lebens	-553
▁klimawandel	-554
ieg	-555
▁do	-556
gang	-557
rekt	-558
▁përm	-559
ta	-560
▁br	-561
tel	-562
▁sf	-563
enden	-564
igkeit	-565
nahmen	-566
▁menaxh	-567
▁produkt	-568
yre	-569
rejt	-570
▁nive	-571
▁zwischen	-572
▁auswirkungen	-573
ad	-574
ogj	-575
ust	-576
fall	-577
▁ber	-578
▁evropë	-579
▁natyrore	-580
▁natürlichen	-581
pr	-582
▁nuk	-583
▁shp	-584
rauch	-585
▁përfsh	-586
oj	-587
ian	-588
▁the	-589
▁sfid	-590
▁europä	-591
▁globale	-592
het	-593
isp	-594
ual	-595
äch	-596
ëse	-597
▁3	-598
ahr	-599
ish	-600
zen	-601
▁po	-602
ryes	-603
▁ndot	-604
▁shër	-605
▁kryes	-606
▁mater	-607
ke	-608
ern	-609
gar	-610
▁at	-611
shëm	-612
▁njer	-613
ac	-614
▁dar	-615
reich	-616
▁disa	-617
ueshme	-618
▁beisp	-619
▁emision	-620
▁tjer	-621
▁vlerës	-622
-2	-623
hm	-624
▁(1	-625
▁et	-626
ashk	-627
▁sow	-628
▁ste	-629
▁entw	-630
▁viel	-631
▁shërb	-632
issionen	-633
▁natyror	-634
▁ndryshimet	-635
ann	-636
gie	-637
eren	-638
iale	-639
▁zum	-640
▁dass	-641
▁komp	-642
▁nivel	-643
▁shembull	-644
per	-645
lung	-646
▁kër	-647
▁maß	-648
▁tra	-649
schie	-650
▁sektor	-651
ellen	-652
ologj	-653
▁kanë	-654
alt	-655
ges	-656
▁pre	-657
▁boden	-658
▁abfall	-659
▁redukt	-660
bi	-661
fr	-662
▁tran	-663
itetit	-664
▁evropian	-665
▁)	-666
▁5	-667
erë	-668
ken	-669
▁he	-670
uese	-671
▁reg	-672
▁sigur	-673
▁inform	-674
▁entwick	-675
iert	-676
ikat	-677
▁sistem	-678
qet	-679
aten	-680
▁mehr	-681
▁oder	-682
ühr	-683
▁ob	-684
istungen	-685
ag	-686
tet	-687
▁su	-688
▁kjo	-689
▁kont	-690
licher	-691
▁tjera	-692
▁mjedisit	-693
▁veränder	-694
hö	-695
häng	-696
iele	-697
isik	-698
▁bis	-699
▁mën	-700
▁heraus	-701
▁können	-702
▁ekosistemit	-703
▁6	-704
eth	-705
▁for	-706
ienst	-707
▁inte	-708
▁energjisë	-709
▁herausforder	-710
ojë	-711
eten	-712
tens	-713
▁bur	-714
▁ander	-715
▁biodivers	-716
pt	-717
së	-718
uft	-719
▁ad	-720
▁py	-721
▁bot	-722
▁det	-723
illim	-724
▁pres	-725
▁integr	-726
▁presion	-727
wä	-728
fra	-729
▁(2	-730
▁ha	-731
▁pr	-732
▁ri	-733
▁199	-734
▁rez	-735
▁rënd	-736
▁drejt	-737
▁gjatë	-738
ant	-739
uss	-740
▁ur	-741
ifik	-742
ëndr	-743
▁imp	-744
▁kërk	-745
ierung	-746
wasser	-747
▁sowie	-748
ienstle	-749
▁beispiel	-750
mit	-751
ähr	-752
▁aj	-753
▁dh	-754
▁sht	-755
▁sie	-756
▁tem	-757
sport	-758
▁rritje	-759
▁4	-760
arb	-761
itë	-762
▁fl	-763
blem	-764
▁str	-765
▁direkt	-766
ëz	-767
chn	-768
weit	-769
▁por	-770
uktur	-771
▁luft	-772
▁tyre	-773
▁efekt	-774
▁wicht	-775
▁material	-776
▁maßnahmen	-777
ienstleistungen	-778
anc	-779
arr	-780
shq	-781
▁af	-782
atur	-783
▁zon	-784
iteti	-785
▁fund	-786
▁ushq	-787
▁biodiverz	-788
enë	-789
pro	-790
umb	-791
ider	-792
onit	-793
weis	-794
▁var	-795
▁ardh	-796
▁bere	-797
▁bashk	-798
▁qëndr	-799
▁ökologischen	-800
ög	-801
-27	-802
lan	-803
len	-804
▁sp	-805
▁pjes	-806
▁europas	-807
▁megjith	-808
▁zhvillim	-809
▁landwirtschaft	-810
ban	-811
uer	-812
▁ku	-813
▁bet	-814
organ	-815
▁mënyr	-816
▁poten	-817
▁risik	-818
▁trend	-819
ualität	-820
▁përfit	-821
ma	-822
igt	-823
ste	-824
ohen	-825
ustr	-826
▁baz	-827
acion	-828
ashtu	-829
▁kann	-830
▁rrezik	-831
▁gjithashtu	-832
kur	-833
änd	-834
ësi	-835
ding	-836
ffiz	-837
fäll	-838
▁fol	-839
▁kuf	-840
polit	-841
▁dhën	-842
▁diese	-843
peratur	-844
▁energie	-845
üg	-846
azh	-847
enn	-848
▁du	-849
▁nx	-850
reib	-851
▁sol	-852
▁ton	-853
▁pesh	-854
ischer	-855
▁einen	-856
▁nutzung	-857
▁problem	-858
▁weltweit	-859
▁megjithatë	-860
▁europäischen	-861
ajt	-862
gra	-863
hre	-864
▁jo	-865
▁we	-866
ohet	-867
rave	-868
▁pop	-869
sicht	-870
▁deri	-871
▁mbetjeve	-872
▁ndryshme	-873
▁kapitalit	-874
ert	-875
kom	-876
mër	-877
▁ko	-878
irës	-879
▁ang	-880
▁vet	-881
▁afat	-882
▁humb	-883
▁ndaj	-884
▁obje	-885
▁haben	-886
▁shkak	-887
▁llogar	-888
▁ndryshimeve	-889
iç	-890
▁ng	-891
▁ul	-892
wend	-893
▁jed	-894
▁qas	-895
▁komb	-896
▁këto	-897
▁biolog	-898
▁përmirës	-899
▁verbrauch	-900
ohl	-901
etzt	-902
falt	-903
▁akt	-904
▁nën	-905
ieren	-906
▁mirë	-907
▁cilat	-908
▁treib	-909
▁fundit	-910
▁transport	-911
la	-912
se	-913
lie	-914
ose	-915
▁sa	-916
ente	-917
▁till	-918
▁verl	-919
▁cilës	-920
▁belast	-921
▁mënyrë	-922
▁konsider	-923
emissionen	-924
aq	-925
sa	-926
äd	-927
▁-	-928
ark	-929
dha	-930
gas	-931
iut	-932
▁am	-933
▁ze	-934
▁uns	-935
leich	-936
▁sein	-937
belast	-938
▁organ	-939
▁përmb	-940
▁rreth	-941
▁çësht	-942
▁temperatur	-943
ij	-944
elb	-945
ete	-946
tër	-947
▁ch	-948
kehr	-949
▁erhö	-950
mittel	-951
▁brend	-952
▁peshk	-953
▁ripër	-954
▁urban	-955
nutzung	-956
▁intens	-957
entr	-958
haus	-959
oren	-960
▁lar	-961
▁mbi	-962
▁aktiv	-963
▁inter	-964
hausgas	-965
▁verbess	-966
▁objektiv	-967
kn	-968
öl	-969
ard	-970
ibt	-971
mer	-972
▁zb	-973
▁zv	-974
esës	-975
halb	-976
iger	-977
isse	-978
ring	-979
wert	-980
zist	-981
▁gem	-982
▁nev	-983
▁ose	-984
▁këtë	-985
▁vepr	-986
▁gesam	-987
▁rrezi	-988
▁trajt	-989
ationen	-990
▁ekzist	-991
▁popull	-992
▁kryesore	-993
▁nachhalt	-994
▁vielfalt	-995
▁treibhausgas	-996
ün	-997
enz	-998
▁da	-999
setz	-1000
usht	-1001
zeit	-1002
▁etw	-1003
▁veç	-1004
hänge	-1005
içien	-1006
▁jetë	-1007
ueshëm	-1008
▁mëdha	-1009
▁llogarit	-1010
▁menschen	-1011
▁bujqësore	-1012
▁ekonomike	-1013
▁përdorimit	-1014
io	-1015
▁•	-1016
cht	-1017
enc	-1018
ens	-1019
heb	-1020
niz	-1021
▁10	-1022
alen	-1023
▁mil	-1024
▁wur	-1025
tërit	-1026
▁1990	-1027
▁2000	-1028
▁prej	-1029
▁përb	-1030
▁ujër	-1031
▁jetës	-1032
ffizien	-1033
▁dieser	-1034
▁rezult	-1035
▁globalen	-1036
ank	-1037
gat	-1038
lin	-1039
völ	-1040
▁(3	-1041
völk	-1042
▁gaz	-1043
▁kal	-1044
▁kim	-1045
▁mög	-1046
ishme	-1047
▁lang	-1048
gangen	-1049
struktur	-1050
▁emisionet	-1051
dienstleistungen	-1052
pp	-1053
ata	-1054
ogë	-1055
rah	-1056
sat	-1057
▁(4	-1058
cial	-1059
▁ato	-1060
▁pak	-1061
▁rap	-1062
ragen	-1063
▁ajrit	-1064
▁konte	-1065
▁jedoch	-1066
▁bereich	-1067
▁njeriut	-1068
▁ndikimet	-1069
▁përgjith	-1070
▁ripërtërit	-1071
▁shërbimeve	-1072
ru	-1073
ahl	-1074
rib	-1075
ubl	-1076
▁fr	-1077
ajon	-1078
atës	-1079
azhd	-1080
eres	-1081
satz	-1082
unkt	-1083
▁eua	-1084
▁gro	-1085
▁inv	-1086
▁deut	-1087
▁eksp	-1088
▁etwa	-1089
▁fakt	-1090
▁lënd	-1091
▁ziel	-1092
▁duhet	-1093
▁einem	-1094
▁rajon	-1095
▁mbësht	-1096
▁raport	-1097
▁rëndës	-1098
qualität	-1099
▁efiçien	-1100
▁përdorimi	-1101
▁përfshirë	-1102
▁ökosysteme	-1103
▁entwicklung	-1104
▁veränderungen	-1105
më	-1106
fry	-1107
itä	-1108
tëz	-1109
ush	-1110
▁bë	-1111
▁hö	-1112
rojt	-1113
verb	-1114
stieg	-1115
▁best	-1116
▁gibt	-1117
▁könn	-1118
▁plan	-1119
▁rück	-1120
erhalb	-1121
frytëz	-1122
stoffe	-1123
▁erheb	-1124
▁gjerë	-1125
▁infra	-1126
▁system	-1127
▁weiter	-1128
▁natürliche	-1129
▁unterschie	-1130
oq	-1131
pf	-1132
▁7	-1133
▁°	-1134
▁„	-1135
bil	-1136
abil	-1137
rior	-1138
▁sub	-1139
▁sëm	-1140
frist	-1141
igung	-1142
ächen	-1143
ëtare	-1144
▁fort	-1145
▁gegen	-1146
▁natur	-1147
▁vazhd	-1148
▁vendet	-1149
▁verring	-1150
▁emisioneve	-1151
▁zusammenhänge	-1152
uz	-1153
fol	-1154
zie	-1155
▁dy	-1156
▁th	-1157
ziel	-1158
▁dëm	-1159
▁hat	-1160
▁plo	-1161
alien	-1162
grund	-1163
▁chem	-1164
▁jenë	-1165
▁përp	-1166
▁përq	-1167
ändern	-1168
▁arrit	-1169
▁gjelb	-1170
▁zonat	-1171
▁bevölk	-1172
▁gjithë	-1173
▁përmes	-1174
▁shkall	-1175
▁shpesh	-1176
▁strate	-1177
▁sëmund	-1178
▁gazrave	-1179
▁rritjen	-1180
▁sfidave	-1181
▁mbështet	-1182
▁politikave	-1183
▁produktion	-1184
▁përdorimin	-1185
▁menschliche	-1186
lt	-1187
ov	-1188
oll	-1189
ätz	-1190
▁ap	-1191
▁el	-1192
▁ex	-1193
elle	-1194
gebi	-1195
wach	-1196
▁aem	-1197
▁neu	-1198
kapit	-1199
onder	-1200
richt	-1201
ësore	-1202
▁2008	-1203
▁beit	-1204
▁groß	-1205
▁beste	-1206
▁fisch	-1207
▁solch	-1208
▁zvogë	-1209
▁njerëz	-1210
▁rritja	-1211
ffizienz	-1212
▁kontrib	-1213
▁wichtig	-1214
▁efiçienc	-1215
▁shëndetin	-1216
▁infrastruktur	-1217
20	-1218
tz	-1219
uß	-1220
ys	-1221
yra	-1222
fahr	-1223
reit	-1224
▁ihr	-1225
▁inn	-1226
▁ndi	-1227
ement	-1228
qetës	-1229
▁mbul	-1230
itetin	-1231
▁prior	-1232
▁lidhje	-1233
▁mbrojt	-1234
▁anderen	-1235
▁industr	-1236
▁shqetës	-1237
▁vorteil	-1238
▁shfrytëz	-1239
▁verschie	-1240
▁umweltpolit	-1241
▁klimawandels	-1242
▁biodiversität	-1243
▁/	-1244
▁8	-1245
ese	-1246
geb	-1247
▁mas	-1248
neuer	-1249
ublik	-1250
▁karb	-1251
▁prit	-1252
▁vers	-1253
halten	-1254
▁besch	-1255
▁daten	-1256
▁eines	-1257
▁ndihm	-1258
▁veçan	-1259
setzung	-1260
▁folgen	-1261
▁konsumit	-1262
▁shëndeti	-1263
cc	-1264
6).	-1265
anz	-1266
apt	-1267
duz	-1268
ger	-1269
rag	-1270
rom	-1271
vor	-1272
▁kr	-1273
eits	-1274
ffen	-1275
grad	-1276
pass	-1277
stum	-1278
▁ins	-1279
▁kri	-1280
▁nor	-1281
▁num	-1282
▁ujë	-1283
fluss	-1284
weise	-1285
ühren	-1286
▁2007	-1287
▁krit	-1288
itäten	-1289
regull	-1290
▁adapt	-1291
▁arten	-1292
▁viele	-1293
▁afatgj	-1294
▁ekspoz	-1295
▁hinaus	-1296
▁komple	-1297
neuerbar	-1298
▁risiken	-1299
verbrauch	-1300
▁resurset	-1301
▁umweltbelast	-1302
▁ripërtëritshme	-1303
öß	-1304
auf	-1305
ejt	-1306
tar	-1307
deck	-1308
achen	-1309
▁indi	-1310
▁pest	-1311
▁reja	-1312
▁verf	-1313
▁ndërt	-1314
▁vetëm	-1315
▁anpass	-1316
▁invest	-1317
▁ekonomik	-1318
▁kapitals	-1319
▁evropiane	-1320
▁biologische	-1321
yt	-1322
ëp	-1323
ëv	-1324
ör	-1325
bau	-1326
gew	-1327
pas	-1328
ute	-1329
äuf	-1330
aliz	-1331
eich	-1332
ellt	-1333
itat	-1334
rakt	-1335
schm	-1336
▁hap	-1337
▁kur	-1338
▁umf	-1339
nisse	-1340
▁kult	-1341
▁pers	-1342
schrit	-1343
▁tilla	-1344
ueshmër	-1345
ologjike	-1346
▁kapitel	-1347
▁emissionen	-1348
▁erneuerbar	-1349
50	-1350
hn	-1351
sht	-1352
tej	-1353
▁oz	-1354
▁ru	-1355
ften	-1356
odel	-1357
sche	-1358
wäss	-1359
▁bër	-1360
▁rën	-1361
▁soz	-1362
▁tej	-1363
ashik	-1364
icion	-1365
ksion	-1366
▁eben	-1367
▁përk	-1368
▁regj	-1369
▁stat	-1370
▁zune	-1371
itetet	-1372
▁gemein	-1373
▁rahmen	-1374
▁anstieg	-1375
▁llojeve	-1376
▁populls	-1377
▁erforder	-1378
▁indirekt	-1379
▁parashik	-1380
▁shërbimet	-1381
gn	-1382
än	-1383
ald	-1384
her	-1385
oja	-1386
üss	-1387
▁ky	-1388
aupt	-1389
eine	-1390
raum	-1391
zeug	-1392
▁kor	-1393
▁min	-1394
▁ref	-1395
zentr	-1396
▁2020	-1397
▁größ	-1398
▁mill	-1399
▁serë	-1400
ësisht	-1401
▁brenda	-1402
▁einige	-1403
▁bericht	-1404
▁gjelbër	-1405
▁lidhura	-1406
▁përfshi	-1407
▁rregull	-1408
▁ujërave	-1409
▁verschieden	-1410
ec	-1411
zu	-1412
erv	-1413
▁50	-1414
führ	-1415
hand	-1416
jaft	-1417
jedi	-1418
ruck	-1419
▁apo	-1420
▁fin	-1421
▁kës	-1422
▁met	-1423
▁saj	-1424
enzen	-1425
ierte	-1426
ition	-1427
▁2005	-1428
▁noch	-1429
▁städ	-1430
▁vjet	-1431
bedeck	-1432
heiten	-1433
kommen	-1434
▁aller	-1435
▁jasht	-1436
▁jedis	-1437
▁mesat	-1438
▁mjedi	-1439
▁negat	-1440
▁nëpër	-1441
▁sipas	-1442
▁tepër	-1443
▁erhöht	-1444
▁gjener	-1445
▁import	-1446
▁rritur	-1447
▁sfidat	-1448
▁verfüg	-1449
▁viteve	-1450
▁zunehm	-1451
▁zurück	-1452
▁darüber	-1453
▁erreich	-1454
▁rritjes	-1455
▁verlust	-1456
▁mjedisin	-1457
▁mjedisor	-1458
▁tregojnë	-1459
▁vorteile	-1460
▁langfrist	-1461
▁potencial	-1462
▁biodiverzitetit	-1463
qe	-1464
sm	-1465
up	-1466
äl	-1467
art	-1468
esa	-1469
ett	-1470
ies	-1471
ren	-1472
▁en	-1473
▁qu	-1474
acht	-1475
endr	-1476
ient	-1477
jedh	-1478
ließ	-1479
llen	-1480
ucht	-1481
▁bez	-1482
▁dek	-1483
▁ter	-1484
linie	-1485
▁aber	-1486
▁arkt	-1487
▁gebi	-1488
▁madh	-1489
▁marr	-1490
▁zeit	-1491
abitat	-1492
ierten	-1493
▁haupt	-1494
▁kufiz	-1495
▁model	-1496
▁vitin	-1497
▁anteil	-1498
▁bazuar	-1499
▁degrad	-1500
▁kombin	-1501
▁mittel	-1502
▁stabil	-1503
▁urbane	-1504
lichkeit	-1505
▁ardhshme	-1506
▁kapitull	-1507
▁kryesisht	-1508
▁ndikimeve	-1509
▁prodhimit	-1510
▁përfitimet	-1511
▁qëndrueshëm	-1512
▁ekosistemeve	-1513
▁verringerung	-1514
80	-1515
ob	-1516
si	-1517
▁“	-1518
ile	-1519
ëmb	-1520
▁is	-1521
▁mo	-1522
▁pa	-1523
find	-1524
hang	-1525
jell	-1526
▁fos	-1527
▁mar	-1528
▁ngj	-1529
▁rol	-1530
▁war	-1531
anzen	-1532
ender	-1533
rahas	-1534
▁einz	-1535
▁komm	-1536
▁krij	-1537
▁shoq	-1538
▁tjet	-1539
erungs	-1540
▁dekad	-1541
▁komun	-1542
▁nevoj	-1543
ikalien	-1544
stoffen	-1545
▁evropa	-1546
▁person	-1547
▁pritet	-1548
▁zhvill	-1549
ressourcen	-1550
▁menaxhimi	-1551
▁presionet	-1552
▁rëndësishme	-1553
▁unterschied	-1554
▁zusammenhang	-1555
qu	-1556
th	-1557
bes	-1558
itt	-1559
kst	-1560
▁nj	-1561
▁ra	-1562
ativ	-1563
idis	-1564
mjet	-1565
përf	-1566
räum	-1567
zess	-1568
▁etc	-1569
▁man	-1570
▁nur	-1571
▁pun	-1572
▁rel	-1573
▁soc	-1574
stell	-1575
▁bërë	-1576
▁tekn	-1577
▁ulët	-1578
▁wahr	-1579
ission	-1580
schein	-1581
schutz	-1582
ërisht	-1583
▁adres	-1584
▁midis	-1585
▁progn	-1586
▁stand	-1587
▁theks	-1588
haltung	-1589
wendung	-1590
▁jahren	-1591
▁klimës	-1592
▁krahas	-1593
▁shoqër	-1594
▁indikat	-1595
▁ndotjes	-1596
▁çështje	-1597
▁kontekst	-1598
▁regionen	-1599
▁beitragen	-1600
▁innerhalb	-1601
▁fortschrit	-1602
▁menaxhimit	-1603
▁chemikalien	-1604
▁wirtschafts	-1605
▁biodiverziteti	-1606
12	-1607
ine	-1608
leg	-1609
mat	-1610
një	-1611
poz	-1612
ärk	-1613
▁ki	-1614
deut	-1615
erer	-1616
gien	-1617
ndar	-1618
nitt	-1619
nung	-1620
▁bas	-1621
▁bed	-1622
▁bio	-1623
▁ble	-1624
▁exp	-1625
▁fur	-1626
▁lok	-1627
▁mir	-1628
fälle	-1629
konom	-1630
unden	-1631
ështu	-1632
▁rrug	-1633
▁toka	-1634
▁währ	-1635
▁beein	-1636
▁grund	-1637
▁krank	-1638
▁kusht	-1639
▁reduz	-1640
▁ruajt	-1641
▁verst	-1642
flächen	-1643
gebiete	-1644
gesetzt	-1645
wertung	-1646
▁diesem	-1647
▁efekte	-1648
▁furniz	-1649
▁gleich	-1650
▁kështu	-1651
▁tjetër	-1652
▁lidhjet	-1653
bedeckung	-1654
▁strategj	-1655
schmutzung	-1656
▁europäische	-1657
tr	-1658
maß	-1659
nah	-1660
opp	-1661
pon	-1662
sät	-1663
▁fe	-1664
amit	-1665
chen	-1666
itur	-1667
ësve	-1668
▁gen	-1669
▁gew	-1670
▁nie	-1671
▁rep	-1672
▁uji	-1673
dings	-1674
isten	-1675
▁fush	-1676
▁ihre	-1677
▁parë	-1678
▁teil	-1679
▁wald	-1680
▁zbat	-1681
▁damit	-1682
▁kësaj	-1683
▁pasur	-1684
▁shpër	-1685
▁subst	-1686
bereich	-1687
chnolog	-1688
schnitt	-1689
▁kultur	-1690
▁pyjeve	-1691
stellung	-1692
▁evropën	-1693
▁verkehr	-1694
▁während	-1695
effizienz	-1696
▁jedisore	-1697
▁rreziqet	-1698
richtlinie	-1699
änderungen	-1700
▁shëndetit	-1701
▁verfügbar	-1702
▁menaxhimin	-1703
▁përfshijnë	-1704
ih	-1705
ip	-1706
iu	-1707
üh	-1708
200	-1709
ani	-1710
azu	-1711
ces	-1712
cid	-1713
det	-1714
imm	-1715
jeg	-1716
odh	-1717
ost	-1718
raf	-1719
rin	-1720
▁co	-1721
▁je	-1722
▁qe	-1723
dung	-1724
hung	-1725
iard	-1726
ling	-1727
ment	-1728
roll	-1729
▁bil	-1730
▁eur	-1731
▁ofr	-1732
andal	-1733
arten	-1734
icher	-1735
orëve	-1736
ësinë	-1737
ësisë	-1738
▁aktu	-1739
▁djeg	-1740
▁seit	-1741
▁hapës	-1742
▁schad	-1743
▁steig	-1744
▁tregt	-1745
ologjik	-1746
produkt	-1747
▁gjitha	-1748
▁jashtë	-1749
▁konkur	-1750
▁status	-1751
▁wurden	-1752
wachstum	-1753
▁aufgrund	-1754
▁gjithnjë	-1755
▁parandal	-1756
▁politike	-1757
▁republik	-1758
▁gegenüber	-1759
▁shpërndar	-1760
▁vergangen	-1761
▁allerdings	-1762
▁popullsisë	-1763
▁materialeve	-1764
▁natürlicher	-1765
▁wichtigsten	-1766
▁ökologische	-1767
15	-1768
000	-1769
5).	-1770
kon	-1771
ord	-1772
veç	-1773
ütz	-1774
▁40	-1775
lech	-1776
orët	-1777
ster	-1778
wort	-1779
▁dal	-1780
▁oft	-1781
▁ung	-1782
ative	-1783
durch	-1784
ustri	-1785
zeich	-1786
▁1980	-1787
▁2009	-1788
▁acid	-1789
▁dazu	-1790
▁dëmt	-1791
▁ende	-1792
▁nutz	-1793
▁qëll	-1794
▁rund	-1795
▁wohl	-1796
ondere	-1797
orgung	-1798
scheid	-1799
▁botër	-1800
▁gesch	-1801
▁pjesë	-1802
▁städt	-1803
▁stärk	-1804
ifikimi	-1805
▁andere	-1806
▁bedeut	-1807
▁dhënat	-1808
▁kohlen	-1809
▁milion	-1810
▁ndotja	-1811
▁përveç	-1812
▁rezerv	-1813
▁risiko	-1814
▁shkakt	-1815
▁shpejt	-1816
▁trends	-1817
▁versch	-1818
▁habitat	-1819
▁kimikat	-1820
▁entwickl	-1821
▁karbonit	-1822
▁konzentr	-1823
▁ndotësve	-1824
▁rückgang	-1825
▁wichtige	-1826
▁anpassung	-1827
▁informacion	-1828
▁konsiderueshme	-1829
ed	-1830
kl	-1831
äm	-1832
fër	-1833
qen	-1834
sie	-1835
ärm	-1836
▁(6	-1837
▁kl	-1838
▁on	-1839
▁qy	-1840
gjer	-1841
kull	-1842
osen	-1843
përd	-1844
ände	-1845
ünft	-1846
▁000	-1847
▁auß	-1848
▁fre	-1849
▁ger	-1850
▁lie	-1851
▁roh	-1852
▁tot	-1853
europ	-1854
issen	-1855
rojnë	-1856
▁dire	-1857
▁forc	-1858
▁hoch	-1859
▁kohë	-1860
▁njoh	-1861
▁scha	-1862
▁viti	-1863
▁wenn	-1864
ashkët	-1865
beding	-1866
liches	-1867
terung	-1868
▁heute	-1869
▁keine	-1870
▁ndjes	-1871
▁ndodh	-1872
▁qasje	-1873
▁wurde	-1874
antwort	-1875
erungen	-1876
▁könnte	-1877
▁natyra	-1878
▁proces	-1879
▁sipërf	-1880
▁vendos	-1881
përdrejt	-1882
schaften	-1883
▁ländern	-1884
▁lëndëve	-1885
▁mbetjet	-1886
▁përmbyt	-1887
▁unterst	-1888
▁vendeve	-1889
▁weitere	-1890
▁direktiv	-1891
▁përqendr	-1892
scheinlich	-1893
▁industrie	-1894
▁politikat	-1895
▁kapitullin	-1896
▁përbashkët	-1897
▁drejtpërdrejt	-1898
0,	-1899
5%	-1900
gt	-1901
za	-1902
äß	-1903
▁,	-1904
7).	-1905
amt	-1906
bei	-1907
bur	-1908
ikl	-1909
qin	-1910
▁ph	-1911
hmen	-1912
istr	-1913
kopp	-1914
meer	-1915
qeve	-1916
verl	-1917
ësia	-1918
▁ajo	-1919
▁art	-1920
▁kap	-1921
▁kat	-1922
▁sas	-1923
▁vër	-1924
▁was	-1925
▁wen	-1926
punkt	-1927
sätze	-1928
▁lind	-1929
▁verg	-1930
▁wach	-1931
▁zahl	-1932
▁zbut	-1933
▁zeza	-1934
▁zhur	-1935
chnung	-1936
▁lartë	-1937
▁madhe	-1938
▁mëtej	-1939
▁ngrit	-1940
▁qever	-1941
▁richt	-1942
▁rrjet	-1943
politik	-1944
schließ	-1945
sorgung	-1946
▁abhäng	-1947
▁berück	-1948
▁einzel	-1949
▁humbja	-1950
▁insbes	-1951
▁korniz	-1952
▁meeres	-1953
▁voraus	-1954
▁burimet	-1955
▁grenzen	-1956
▁könnten	-1957
▁nachbar	-1958
▁peshkut	-1959
▁übersch	-1960
▁botërore	-1961
▁politika	-1962
▁nëpërmjet	-1963
▁rreziqeve	-1964
▁trajtimin	-1965
▁aktivitäten	-1966
▁berücksicht	-1967
▁bevölkerung	-1968
▁kohlenstoff	-1969
▁transportit	-1970
verschmutzung	-1971
▁insbesondere	-1972
ku	-1973
lb	-1974
sl	-1975
▁9	-1976
9).	-1977
arf	-1978
arë	-1979
gem	-1980
igj	-1981
kte	-1982
orë	-1983
pcc	-1984
rat	-1985
sen	-1986
▁sü	-1987
▁wo	-1988
cion	-1989
iben	-1990
icid	-1991
jerr	-1992
mang	-1993
▁dür	-1994
▁höh	-1995
▁pse	-1996
▁vom	-1997
esave	-1998
essen	-1999
geben	-2000
landa	-2001
nahme	-2002
strum	-2003
▁alle	-2004
▁ange	-2005
▁bess	-2006
▁biom	-2007
▁emet	-2008
▁hier	-2009
▁ipcc	-2010
▁mung	-2011
▁nahr	-2012
▁neue	-2013
▁nëse	-2014
▁plot	-2015
▁përc	-2016
▁raum	-2017
atësir	-2018
finden	-2019
nation	-2020
onitor	-2021
▁ausge	-2022
▁brenn	-2023
▁elekt	-2024
▁immer	-2025
▁jahre	-2026
▁kufij	-2027
▁marrë	-2028
▁mjaft	-2029
▁plotë	-2030
▁prakt	-2031
▁qytet	-2032
▁sjell	-2033
▁thelb	-2034
▁tillë	-2035
▁ujore	-2036
teilung	-2037
verkehr	-2038
▁aspekt	-2039
▁gesell	-2040
▁kaluar	-2041
▁nxjerr	-2042
▁pasoja	-2043
▁përpje	-2044
▁schwer	-2045
▁shkëmb	-2046
▁tonnen	-2047
▁verurs	-2048
igkeiten	-2049
▁bereits	-2050
▁hinweis	-2051
▁komplex	-2052
▁konkurr	-2053
▁miliard	-2054
▁organiz	-2055
▁resurse	-2056
▁mbulesës	-2057
▁negative	-2058
▁pesticid	-2059
▁probleme	-2060
▁rezultat	-2061
▁thatësir	-2062
▁ushqimit	-2063
▁erhaltung	-2064
▁përfitime	-2065
▁umweltaus	-2066
▁verbunden	-2067
▁verantwort	-2068
▁ekosistemet	-2069
▁information	-2070
▁veçanërisht	-2071
▁bevölkerungs	-2072
▁fortschritte	-2073
▁lebensmittel	-2074
▁temperaturës	-2075
▁bodenbedeckung	-2076
▁lebensqualität	-2077
▁wirtschaftliche	-2078
2)	-2079
cy	-2080
do	-2081
äh	-2082
▁&	-2083
0).	-2084
ene	-2085
fäh	-2086
gje	-2087
mel	-2088
nis	-2089
ysh	-2090
▁na	-2091
▁of	-2092
asst	-2093
best	-2094
erei	-2095
gark	-2096
iden	-2097
onia	-2098
schl	-2099
shih	-2100
säch	-2101
vent	-2102
wält	-2103
zehn	-2104
ëtar	-2105
▁anz	-2106
▁bip	-2107
▁dah	-2108
▁erw	-2109
▁eut	-2110
▁not	-2111
▁pol	-2112
▁sid	-2113
▁tër	-2114
▁vog	-2115
assen	-2116
druck	-2117
folge	-2118
gjegj	-2119
ishte	-2120
lagen	-2121
ndern	-2122
siehe	-2123
uesit	-2124
üssen	-2125
▁2006	-2126
▁arri	-2127
▁biok	-2128
▁fqin	-2129
▁grup	-2130
▁impl	-2131
▁past	-2132
▁priv	-2133
▁verw	-2134
arbeit	-2135
wellen	-2136
üglich	-2137
▁botës	-2138
▁ngark	-2139
▁përsh	-2140
▁schwe	-2141
agement	-2142
osition	-2143
▁detare	-2144
▁klimat	-2145
▁lidhur	-2146
▁länder	-2147
▁mbeten	-2148
▁mesdhe	-2149
▁rrjedh	-2150
▁schutz	-2151
▁shumic	-2152
▁wieder	-2153
▁efektet	-2154
▁kufijve	-2155
▁mirëqen	-2156
▁pasigur	-2157
▁përpjek	-2158
maßnahmen	-2159
sichtlich	-2160
▁abwasser	-2161
▁industri	-2162
▁jahrzehn	-2163
▁kontribu	-2164
▁përdorur	-2165
▁qualität	-2166
▁rrezikut	-2167
▁siguruar	-2168
▁sistemet	-2169
▁struktur	-2170
▁zvogëlim	-2171
produktion	-2172
▁direktiva	-2173
▁entscheid	-2174
▁indirekte	-2175
▁ndryshime	-2176
▁ndryshimi	-2177
▁umsetzung	-2178
▁vlerësimi	-2179
▁erhebliche	-2180
▁mittelmeer	-2181
▁ndryshimit	-2182
▁sektoriale	-2183
▁sëmundjeve	-2184
▁gesundheits	-2185
▁erforderlich	-2186
▁shëndetësore	-2187
▁wahrscheinlich	-2188
eg	-2189
kr	-2190
ph	-2191
yn	-2192
cyc	-2193
cën	-2194
fli	-2195
fsh	-2196
fte	-2197
ika	-2198
ise	-2199
jët	-2200
kal	-2201
kre	-2202
oft	-2203
ond	-2204
par	-2205
rän	-2206
sam	-2207
ante	-2208
erst	-2209
fähr	-2210
glie	-2211
komb	-2212
orte	-2213
raft	-2214
spro	-2215
▁aft	-2216
▁end	-2217
▁mal	-2218
▁mer	-2219
▁som	-2220
▁wes	-2221
akter	-2222
asysh	-2223
ograf	-2224
shtat	-2225
äufig	-2226
▁2050	-2227
▁anal	-2228
▁gest	-2229
▁ozon	-2230
▁para	-2231
▁prek	-2232
▁rast	-2233
▁sore	-2234
▁tokë	-2235
gesamt	-2236
wässer	-2237
▁daher	-2238
▁denen	-2239
▁erfol	-2240
▁folge	-2241
▁kafsh	-2242
▁larta	-2243
▁rënie	-2244
▁sfida	-2245
▁vende	-2246
cycling	-2247
▁bewält	-2248
▁gefähr	-2249
▁gesamt	-2250
▁kompon	-2251
▁nation	-2252
▁ndërsa	-2253
▁nutzen	-2254
▁region	-2255
▁solche	-2256
▁sowohl	-2257
▁stellt	-2258
▁varfër	-2259
▁vielen	-2260
▁wesent	-2261
▁adaptim	-2262
▁anëtare	-2263
▁cilësia	-2264
▁derzeit	-2265
▁dhënave	-2266
▁direkte	-2267
▁djegëse	-2268
▁monitor	-2269
▁notwend	-2270
▁burimeve	-2271
▁cilësisë	-2272
▁gemeinsa	-2273
▁ndikojnë	-2274
▁parasysh	-2275
▁substanc	-2276
ueshmërinë	-2277
▁belastung	-2278
▁bereichen	-2279
▁bewertung	-2280
▁bezüglich	-2281
▁fischerei	-2282
▁millionen	-2283
▁prodhimin	-2284
▁technolog	-2285
▁teknologj	-2286
▁vergleich	-2287
schließlich	-2288
▁efiçiencës	-2289
▁habitateve	-2290
▁presioneve	-2291
▁nachhaltige	-2292
wirtschaftung	-2293
▁durchschnitt	-2294
▁menschlichen	-2295
▁përgjithshëm	-2296
▁verschiedenen	-2297
▁verbesserungen	-2298
ba	-2299
ha	-2300
sy	-2301
2).	-2302
app	-2303
aub	-2304
eln	-2305
esë	-2306
fik	-2307
hur	-2308
iar	-2309
ide	-2310
ina	-2311
ism	-2312
itu	-2313
koh	-2314
net	-2315
ont	-2316
tok	-2317
trä	-2318
uks	-2319
▁17	-2320
▁as	-2321
▁id	-2322
▁lu	-2323
▁to	-2324
aler	-2325
ania	-2326
aqes	-2327
cker	-2328
qean	-2329
rein	-2330
uten	-2331
▁bel	-2332
▁erf	-2333
▁hol	-2334
▁lëv	-2335
▁net	-2336
▁pap	-2337
▁ric	-2338
▁sin	-2339
▁syn	-2340
▁tur	-2341
▁wel	-2342
▁wäl	-2343
ffekt	-2344
führt	-2345
glied	-2346
idung	-2347
ingen	-2348
itare	-2349
itete	-2350
▁bazë	-2351
▁botë	-2352
▁disk	-2353
▁form	-2354
▁kost	-2355
▁port	-2356
▁përz	-2357
▁shën	-2358
▁soll	-2359
▁tani	-2360
▁veri	-2361
altung	-2362
▁acker	-2363
▁allem	-2364
▁atyre	-2365
▁bëjnë	-2366
▁ident	-2367
▁ishte	-2368
▁künft	-2369
▁oqean	-2370
▁ushqy	-2371
▁zhurm	-2372
▁ziele	-2373
kapitel	-2374
stellen	-2375
unksion	-2376
zeugung	-2377
▁arktik	-2378
▁dispoz	-2379
▁elektr	-2380
▁handel	-2381
▁konfli	-2382
▁kosten	-2383
▁mundës	-2384
▁njohur	-2385
▁planet	-2386
▁rritet	-2387
▁tenden	-2388
▁tokave	-2389
▁ushqim	-2390
▁wälder	-2391
▁arritur	-2392
▁besteht	-2393
▁einigen	-2394
▁komprom	-2395
▁kornizë	-2396
▁kritike	-2397
▁meisten	-2398
▁mesatar	-2399
▁modelet	-2400
▁nivelet	-2401
▁përcakt	-2402
▁sociale	-2403
▁sondern	-2404
▁umweltf	-2405
▁weniger	-2406
▁cilësinë	-2407
▁dekadave	-2408
▁gebieten	-2409
▁gesamten	-2410
▁intensiv	-2411
▁kompleks	-2412
▁krahasim	-2413
▁ndikimit	-2414
▁prodhimi	-2415
▁përdorim	-2416
▁përgjegj	-2417
▁standard	-2418
▁weiteren	-2419
▁afatgjata	-2420
▁afatgjatë	-2421
▁bujqësisë	-2422
▁kombëtare	-2423
▁prognosen	-2424
▁ekzistojnë	-2425
▁erreichung	-2426
▁politische	-2427
▁verwendung	-2428
▁zhvillimin	-2429
▁brennstoffe	-2430
▁internation	-2431
▁krankheiten	-2432
▁parashikuar	-2433
▁prioritetet	-2434
▁gesellschaft	-2435
▁përgjithshme	-2436
▁verbesserung	-2437
br	-2438
fe	-2439
mi	-2440
ud	-2441
che	-2442
etë	-2443
fer	-2444
ihe	-2445
isa	-2446
met	-2447
mos	-2448
roh	-2449
wie	-2450
zuf	-2451
ßen	-2452
▁(5	-2453
▁1,	-2454
▁30	-2455
▁ir	-2456
▁it	-2457
▁pl	-2458
▁pm	-2459
asse	-2460
esën	-2461
iegt	-2462
ogen	-2463
ugal	-2464
▁and	-2465
▁aut	-2466
▁bar	-2467
▁bem	-2468
▁jug	-2469
▁sau	-2470
▁sot	-2471
▁tat	-2472
aaten	-2473
ament	-2474
frage	-2475
ishëm	-2476
ommen	-2477
zesse	-2478
▁gjer	-2479
▁letz	-2480
▁mall	-2481
▁ujor	-2482
denken	-2483
ekonom	-2484
europa	-2485
fällen	-2486
▁burim	-2487
▁dheut	-2488
▁ebene	-2489
▁ihrer	-2490
▁kohär	-2491
▁numër	-2492
▁periu	-2493
▁reihe	-2494
▁rolle	-2495
verlust	-2496
▁allgem	-2497
▁erziel	-2498
▁führen	-2499
▁gering	-2500
▁kimike	-2501
▁kërcën	-2502
▁nevojë	-2503
▁ozonit	-2504
▁qëllim	-2505
▁sozial	-2506
▁tejkal	-2507
▁zusätz	-2508
kapitull	-2509
zuführen	-2510
▁entkopp	-2511
▁instrum	-2512
▁shkallë	-2513
fähigkeit	-2514
▁besonder	-2515
▁funksion	-2516
▁ndërkomb	-2517
▁portugal	-2518
▁unsicher	-2519
▁veprimet	-2520
▁beispiele	-2521
▁degradimi	-2522
▁materiale	-2523
▁recycling	-2524
▁zhvillimi	-2525
▁direktivës	-2526
▁ekzistuese	-2527
▁furnizimit	-2528
▁hochwasser	-2529
▁kimikateve	-2530
▁kontekstin	-2531
▁reduktimin	-2532
▁weltweiten	-2533
▁belastungen	-2534
▁dispozicion	-2535
▁objektivave	-2536
▁vergangenen	-2537
▁informationen	-2538
▁nachhaltigkeit	-2539
▁zurückzuführen	-2540
eu	-2541
fa	-2542
uq	-2543
zw	-2544
zy	-2545
bez	-2546
duk	-2547
eht	-2548
geh	-2549
iti	-2550
kun	-2551
ënë	-2552
▁(7	-2553
▁).	-2554
▁25	-2555
▁az	-2556
▁gs	-2557
▁la	-2558
▁or	-2559
-200	-2560
alet	-2561
ateg	-2562
gest	-2563
jahr	-2564
lidh	-2565
netz	-2566
oftë	-2567
ojmë	-2568
omos	-2569
umen	-2570
wohl	-2571
ëpun	-2572
▁5).	-2573
▁amb	-2574
▁bal	-2575
▁dan	-2576
▁geb	-2577
▁pam	-2578
▁san	-2579
▁vol	-2580
▁zwe	-2581
daten	-2582
einen	-2583
ffent	-2584
iesen	-2585
imtar	-2586
inave	-2587
uarit	-2588
ëmarr	-2589
örder	-2590
üsten	-2591
▁cila	-2592
▁früh	-2593
▁hekt	-2594
▁jähr	-2595
▁ketë	-2596
▁kuad	-2597
▁kupt	-2598
▁pyll	-2599
▁qenë	-2600
▁sehr	-2601
roffen	-2602
wirken	-2603
▁anges	-2604
▁depon	-2605
▁deren	-2606
▁dhëna	-2607
▁liegt	-2608
▁lëviz	-2609
▁miner	-2610
▁numri	-2611
▁nxeht	-2612
▁qasja	-2613
▁refle	-2614
▁shtëp	-2615
▁union	-2616
arakter	-2617
iteteve	-2618
ualisht	-2619
▁ansatz	-2620
▁dallim	-2621
▁diesen	-2622
▁feucht	-2623
▁gefahr	-2624
▁machen	-2625
▁mbetur	-2626
▁müssen	-2627
▁obwohl	-2628
▁pestiz	-2629
▁shkenc	-2630
▁shumta	-2631
▁sicher	-2632
▁tregon	-2633
▁verein	-2634
▁zeigen	-2635
handlung	-2636
isierung	-2637
sächlich	-2638
▁ansätze	-2639
▁bestimm	-2640
▁bleiben	-2641
▁flächen	-2642
▁hapësin	-2643
▁mehrere	-2644
▁ndikime	-2645
▁përqind	-2646
▁përzier	-2647
▁qeveris	-2648
▁shembuj	-2649
▁shumica	-2650
kapitulli	-2651
▁ekziston	-2652
▁konsumat	-2653
▁kontroll	-2654
▁mesatare	-2655
▁mögliche	-2656
▁nahrungs	-2657
▁sigurisë	-2658
lechterung	-2659
▁außerhalb	-2660
▁bashkëpun	-2661
▁einzelnen	-2662
▁erreichen	-2663
▁fischbest	-2664
▁insgesamt	-2665
▁mbrojtjen	-2666
▁mëtejshëm	-2667
▁reduktion	-2668
▁zunehmend	-2669
▁efiçiencën	-2670
▁objektivat	-2671
▁bewältigung	-2672
▁llogaritjes	-2673
▁shqetësimet	-2674
▁städtischen	-2675
▁përmirësimin	-2676
▁unterschiede	-2677
▁entwicklungen	-2678
▁langfristigen	-2679
▁einschließlich	-2680
ev	-2681
ko	-2682
pm	-2683
ts	-2684
1).	-2685
8).	-2686
att	-2687
emm	-2688
kan	-2689
let	-2690
mon	-2691
mäß	-2692
ret	-2693
upp	-2694
ure	-2695
var	-2696
äss	-2697
ësh	-2698
▁%,	-2699
▁0,	-2700
▁gd	-2701
burg	-2702
gjia	-2703
gres	-2704
iges	-2705
iven	-2706
kung	-2707
odes	-2708
prin	-2709
wemm	-2710
▁arb	-2711
▁dad	-2712
▁dob	-2713
▁fra	-2714
▁fut	-2715
▁har	-2716
▁ish	-2717
▁kop	-2718
▁kth	-2719
▁pik	-2720
▁qar	-2721
▁ser	-2722
▁slo	-2723
▁val	-2724
▁vde	-2725
▁zug	-2726
ichts	-2727
iegel	-2728
ismen	-2729
ismus	-2730
itive	-2731
kunft	-2732
raßen	-2733
reund	-2734
uster	-2735
ziell	-2736
▁(6).	-2737
▁2002	-2738
▁beob	-2739
▁cikl	-2740
▁denn	-2741
▁doch	-2742
▁fest	-2743
▁foss	-2744
▁gehö	-2745
▁grün	-2746
▁haus	-2747
▁nähr	-2748
▁pakt	-2749
▁pran	-2750
▁span	-2751
▁tash	-2752
▁tier	-2753
▁voll	-2754
ategor	-2755
emburg	-2756
ierter	-2757
nehmen	-2758
sweise	-2759
undert	-2760
ysteme	-2761
▁atmos	-2762
▁ergeb	-2763
▁ersch	-2764
▁fläch	-2765
▁funkt	-2766
▁kapac	-2767
▁ngroh	-2768
▁regel	-2769
▁stoff	-2770
▁vitet	-2771
▁waren	-2772
bildung	-2773
ländern	-2774
▁analiz	-2775
▁anfäll	-2776
▁bashku	-2777
▁dürren	-2778
▁fosile	-2779
▁hinter	-2780
▁këtyre	-2781
▁lëndët	-2782
▁ndjesh	-2783
▁nieder	-2784
▁nxitur	-2785
▁publik	-2786
▁reform	-2787
▁shpenz	-2788
▁shënim	-2789
▁social	-2790
▁stehen	-2791
▁steuer	-2792
▁tragen	-2793
▁versau	-2794
▁wissen	-2795
▁wohlbe	-2796
▁zvogël	-2797
▁aktuale	-2798
▁bioener	-2799
▁dadurch	-2800
▁dukshme	-2801
▁ekonomi	-2802
▁energji	-2803
▁gesamte	-2804
▁progres	-2805
▁përball	-2806
▁raporti	-2807
▁regjion	-2808
▁verbind	-2809
▁verstär	-2810
▁zhurmës	-2811
▁deutlich	-2812
▁einfluss	-2813
▁emission	-2814
▁globaler	-2815
▁mundshme	-2816
▁ndërlidh	-2817
▁ushqyese	-2818
▁verzeich	-2819
versorgung	-2820
▁besonders	-2821
▁effizienz	-2822
▁integruar	-2823
▁reduktuar	-2824
▁sistemike	-2825
▁ekologjike	-2826
▁exposition	-2827
▁unterstütz	-2828
▁verwaltung	-2829
▁vlerësimet	-2830
▁vlerësimin	-2831
▁entkopplung	-2832
▁indikatoren	-2833
▁kompromisse	-2834
▁materialien	-2835
▁möglichkeit	-2836
▁natürliches	-2837
▁qëndrueshme	-2838
▁shfrytëzimi	-2839
▁thatësirave	-2840
▁biologischen	-2841
▁wohlbefinden	-2842
▁fischbestände	-2843
▁informacionit	-2844
▁biodiversitetit	-2845
.5	-2846
4)	-2847
70	-2848
bs	-2849
di	-2850
dr	-2851
rr	-2852
ww	-2853
yp	-2854
▁—	-2855
-15	-2856
...	-2857
bat	-2858
dal	-2859
fin	-2860
für	-2861
get	-2862
hin	-2863
hol	-2864
ira	-2865
isl	-2866
mes	-2867
min	-2868
ohn	-2869
oni	-2870
ora	-2871
ujt	-2872
von	-2873
üng	-2874
▁13	-2875
▁32	-2876
alle	-2877
aren	-2878
ehen	-2879
isen	-2880
jtën	-2881
lage	-2882
roph	-2883
usst	-2884
ußab	-2885
ësor	-2886
öden	-2887
▁(13	-2888
▁20%	-2889
▁6).	-2890
▁abs	-2891
▁dim	-2892
▁fok	-2893
▁fuq	-2894
▁nun	-2895
▁pos	-2896
▁set	-2897
▁siç	-2898
▁tro	-2899
▁wür	-2900
▁zëv	-2901
chten	-2902
endos	-2903
endës	-2904
gesch	-2905
heits	-2906
inder	-2907
jasht	-2908
knapp	-2909
orine	-2910
shmër	-2911
ständ	-2912
ählen	-2913
▁frag	-2914
▁inst	-2915
▁kurz	-2916
▁legj	-2917
▁mitt	-2918
▁mult	-2919
▁ndar	-2920
▁ober	-2921
▁prim	-2922
▁tepr	-2923
▁trin	-2924
▁zwar	-2925
iarden	-2926
ierend	-2927
innung	-2928
räumen	-2929
unrein	-2930
▁bedro	-2931
▁betra	-2932
▁bezug	-2933
▁botën	-2934
▁breit	-2935
▁bëhet	-2936
▁detar	-2937
▁detit	-2938
▁entsp	-2939
▁forst	-2940
▁fußab	-2941
▁große	-2942
▁jahrh	-2943
▁lloje	-2944
▁mëpar	-2945
▁ofron	-2946
▁përgj	-2947
▁stark	-2948
▁todes	-2949
iegende	-2950
industr	-2951
itionen	-2952
reitung	-2953
urismus	-2954
▁anzahl	-2955
▁beding	-2956
▁bieten	-2957
▁bodens	-2958
▁dieses	-2959
▁diskut	-2960
▁erfolg	-2961
▁erzeug	-2962
▁geziel	-2963
▁hektar	-2964
▁häufig	-2965
▁konver	-2966
▁lokale	-2967
▁mënyra	-2968
▁plotës	-2969
▁rajone	-2970
▁sauber	-2971
▁tashmë	-2972
▁themel	-2973
▁umfass	-2974
▁wandel	-2975
▁welche	-2976
▁zugang	-2977
▁bringen	-2978
▁einsatz	-2979
▁ergeben	-2980
▁erhöhen	-2981
▁letzten	-2982
▁njëjtën	-2983
▁pylltar	-2984
▁straßen	-2985
▁tregues	-2986
▁trendët	-2987
anagement	-2988
▁bujqësia	-2989
▁faktoren	-2990
▁kapitali	-2991
▁karakter	-2992
▁komision	-2993
▁kërkesës	-2994
▁lebenszy	-2995
▁modeleve	-2996
▁përjasht	-2997
▁përmbush	-2998
▁përshtat	-2999
▁tokësore	-3000
▁vlerësim	-3001
▁wachstum	-3002
▁zhvendos	-3003
▁zëvendës	-3004
ätigkeiten	-3005
▁betroffen	-3006
▁ekonomisë	-3007
▁ekonomitë	-3008
▁erheblich	-3009
▁hapësinor	-3010
▁kapitalin	-3011
▁nachfrage	-3012
▁nevojshme	-3013
▁produktiv	-3014
▁republika	-3015
▁weiterhin	-3016
▁zahlreich	-3017
▁çështjeve	-3018
▁ergebnisse	-3019
▁fußabdruck	-3020
▁kontribuar	-3021
▁mbështetur	-3022
▁milliarden	-3023
▁mirëqenien	-3024
▁përmbytjet	-3025
▁thelbësore	-3026
▁jahrhundert	-3027
▁landnutzung	-3028
▁përmirësuar	-3029
▁rëndësishëm	-3030
▁vazhdueshme	-3031
▁ökosystemen	-3032
▁erneuerbaren	-3033
▁nachhaltigen	-3034
▁umweltfreund	-3035
▁wissenschaft	-3036
▁notwendigkeit	-3037
▁mittelmeerraum	-3038
▁voraussichtlich	-3039
6)	-3040
9)	-3041
ce	-3042
ef	-3043
mc	-3044
nv	-3045
tp	-3046
ök	-3047
-12	-3048
dem	-3049
des	-3050
ers	-3051
fen	-3052
hem	-3053
hta	-3054
igr	-3055
imc	-3056
krä	-3057
oks	-3058
qia	-3059
rei	-3060
vir	-3061
ëmi	-3062
ërr	-3063
▁11	-3064
▁15	-3065
▁35	-3066
▁fa	-3067
▁fä	-3068
beut	-3069
fach	-3070
isin	-3071
länd	-3072
ogar	-3073
plan	-3074
rest	-3075
riff	-3076
ritt	-3077
trag	-3078
ysen	-3079
zent	-3080
zial	-3081
änem	-3082
üter	-3083
–200	-3084
▁190	-3085
▁atë	-3086
▁bzw	-3087
▁bür	-3088
▁eko	-3089
▁eng	-3090
▁est	-3091
▁gdp	-3092
▁gel	-3093
▁hid	-3094
▁hit	-3095
▁rum	-3096
▁udh	-3097
▁wei	-3098
▁zgj	-3099
▁çdo	-3100
atëse	-3101
bewer	-3102
ciale	-3103
gehen	-3104
gjedh	-3105
ieben	-3106
imore	-3107
innen	-3108
izuar	-3109
jahre	-3110
osion	-3111
ostiz	-3112
ozion	-3113
risik	-3114
sagen	-3115
viron	-3116
▁1997	-3117
▁2015	-3118
▁ajër	-3119
▁fast	-3120
▁fond	-3121
▁fëmi	-3122
▁gjet	-3123
▁gjys	-3124
▁holz	-3125
▁häng	-3126
▁kipp	-3127
▁kull	-3128
▁këtu	-3129
▁mosh	-3130
▁neto	-3131
▁nett	-3132
▁nxit	-3133
▁parl	-3134
▁prop	-3135
▁schl	-3136
▁spec	-3137
▁stud	-3138
▁trad	-3139
▁vdek	-3140
▁wett	-3141
achtet	-3142
ativen	-3143
gehend	-3144
iechen	-3145
kullit	-3146
länder	-3147
pflich	-3148
schlag	-3149
source	-3150
stands	-3151
strate	-3152
ökonom	-3153
▁(16).	-3154
▁bezie	-3155
▁davon	-3156
▁diver	-3157
▁druck	-3158
▁dänem	-3159
▁dësht	-3160
▁grimc	-3161
▁katër	-3162
▁këtij	-3163
▁marin	-3164
▁mobil	-3165
▁punës	-3166
▁recht	-3167
▁ricik	-3168
▁socio	-3169
▁ulëta	-3170
▁verme	-3171
▁vogel	-3172
▁volks	-3173
▁wider	-3174
▁zgjer	-3175
ethoden	-3176
flanzen	-3177
ierende	-3178
ovacion	-3179
▁bedarf	-3180
▁biomas	-3181
▁island	-3182
▁jahres	-3183
▁küsten	-3184
▁progra	-3185
▁përpar	-3186
▁përtej	-3187
▁schätz	-3188
▁shmang	-3189
▁totale	-3190
▁unsere	-3191
▁öffent	-3192
ffizient	-3193
gegangen	-3194
ierenden	-3195
▁eksport	-3196
▁erozion	-3197
▁gehören	-3198
▁jetësor	-3199
▁konsumi	-3200
▁krijuar	-3201
▁kryesor	-3202
▁kërkesa	-3203
▁ndikuar	-3204
▁nevojën	-3205
▁pamjaft	-3206
▁qytetar	-3207
▁rajonet	-3208
▁shkalla	-3209
▁shpejtë	-3210
▁sidomos	-3211
▁tepruar	-3212
▁zufolge	-3213
aufkommen	-3214
ekonomike	-3215
industrie	-3216
vironment	-3217
wachstums	-3218
wemmungen	-3219
▁abfällen	-3220
▁bujqësor	-3221
▁dänemark	-3222
▁efektive	-3223
▁erhalten	-3224
▁gewässer	-3225
▁mesdheut	-3226
▁nachbarn	-3227
▁ndihmojë	-3228
▁njerëzit	-3229
▁njerëzve	-3230
▁proceset	-3231
▁stärkung	-3232
iechenland	-3233
▁basierend	-3234
▁bedeutung	-3235
▁ekologjik	-3236
▁intensive	-3237
▁parlament	-3238
▁pjesëmarr	-3239
▁produktet	-3240
▁përkatëse	-3241
▁rezervave	-3242
▁verursach	-3243
▁vlerësuar	-3244
▁wasserrah	-3245
▁weltweite	-3246
▁anpassungs	-3247
▁ekspozimit	-3248
▁gleichzeit	-3249
▁kritischen	-3250
▁objektivit	-3251
▁prognostiz	-3252
▁rezultojnë	-3253
▁stabilität	-3254
▁todesfälle	-3255
▁transporti	-3256
▁zvogëlimin	-3257
▁änderungen	-3258
............	-3259
▁acidifikimi	-3260
▁konsideratë	-3261
▁pesticideve	-3262
▁përmirësime	-3263
▁unternehmen	-3264
▁versauerung	-3265
▁veränderung	-3266
▁wasserknapp	-3267
▁erneuerbarer	-3268
▁hauptsächlich	-3269
▁drejtpërdrejta	-3270
▁drejtpërdrejtë	-3271
▁nahrungsmittel	-3272
▁verantwortlich	-3273
▁biodiversitetin	-3274
▁forstwirtschaft	-3275
▁konzentrationen	-3276
▁umweltbelastung	-3277
ca	-3278
ly	-3279
na	-3280
ox	-3281
xt	-3282
üt	-3283
100	-3284
4).	-3285
eig	-3286
eke	-3287
eng	-3288
erw	-3289
hap	-3290
htë	-3291
iet	-3292
ils	-3293
isk	-3294
jve	-3295
sst	-3296
the	-3297
tra	-3298
vol	-3299
zip	-3300
äre	-3301
öpf	-3302
▁14	-3303
▁70	-3304
▁av	-3305
▁bl	-3306
▁ci	-3307
▁ec	-3308
▁ho	-3309
▁ke	-3310
▁oh	-3311
ajnë	-3312
amin	-3313
asch	-3314
atat	-3315
esat	-3316
fung	-3317
gatr	-3318
hnen	-3319
ifiz	-3320
igte	-3321
inat	-3322
kann	-3323
lauf	-3324
ledh	-3325
leun	-3326
nden	-3327
pejt	-3328
zung	-3329
▁50%	-3330
▁aqu	-3331
▁bau	-3332
▁ben	-3333
▁bul	-3334
▁dra	-3335
▁eis	-3336
▁erg	-3337
▁erm	-3338
▁ern	-3339
▁gef	-3340
▁get	-3341
▁gre	-3342
▁hnv	-3343
▁kre	-3344
▁mio	-3345
▁sia	-3346
▁tak	-3347
▁urs	-3348
▁wär	-3349
▁zah	-3350
chnet	-3351
elbst	-3352
enten	-3353
falls	-3354
fisch	-3355
flekt	-3356
grenz	-3357
iegen	-3358
igten	-3359
igtes	-3360
imark	-3361
inter	-3362
lungs	-3363
restr	-3364
ritor	-3365
räume	-3366
urset	-3367
▁azot	-3368
▁breg	-3369
▁cilë	-3370
▁dheu	-3371
▁führ	-3372
▁geht	-3373
▁höch	-3374
▁jewe	-3375
▁kenë	-3376
▁kern	-3377
▁kurr	-3378
▁mang	-3379
▁ohne	-3380
▁pell	-3381
▁qark	-3382
▁rënë	-3383
▁slow	-3384
▁stim	-3385
▁trup	-3386
▁vier	-3387
▁vënë	-3388
▁zona	-3389
▁zvic	-3390
effekt	-3391
emente	-3392
intens	-3393
mengen	-3394
olitik	-3395
reicht	-3396
uerung	-3397
ärmung	-3398
▁alter	-3399
▁dabei	-3400
▁debat	-3401
▁defin	-3402
▁detyr	-3403
▁eigen	-3404
▁energ	-3405
▁fokus	-3406
▁fusha	-3407
▁hidro	-3408
▁hitze	-3409
▁hshme	-3410
▁innov	-3411
▁kommt	-3412
▁lumen	-3413
▁lësia	-3414
▁malta	-3415
▁neuen	-3416
▁neuer	-3417
▁paral	-3418
▁paraq	-3419
▁relev	-3420
▁sozio	-3421
▁spiel	-3422
▁stick	-3423
▁trans	-3424
▁trink	-3425
▁ujëra	-3426
▁vitit	-3427
▁wobei	-3428
▁zentr	-3429
aktoren	-3430
bezogen	-3431
gatrend	-3432
gewicht	-3433
gliedsl	-3434
isation	-3435
schland	-3436
spiegel	-3437
staaten	-3438
▁balanc	-3439
▁bereit	-3440
▁betjet	-3441
▁bürger	-3442
▁ciklit	-3443
▁entste	-3444
▁ganzen	-3445
▁höhere	-3446
▁kommun	-3447
▁kuadër	-3448
▁kërkon	-3449
▁lidhen	-3450
▁liegen	-3451
▁llojet	-3452
▁ndikim	-3453
▁ngadal	-3454
▁primar	-3455
▁përhap	-3456
▁rrisin	-3457
▁stoffe	-3458
▁surset	-3459
▁themat	-3460
▁umgang	-3461
▁zahlen	-3462
▁zgjedh	-3463
▁zählen	-3464
gebieten	-3465
genommen	-3466
ifikimit	-3467
islacion	-3468
sverlust	-3469
▁abfälle	-3470
▁ardhmen	-3471
▁bessere	-3472
▁bregdet	-3473
▁eutroph	-3474
▁gjenden	-3475
▁gjendje	-3476
▁humbjes	-3477
▁kategor	-3478
▁koheren	-3479
▁kontext	-3480
▁konvert	-3481
▁kushtet	-3482
▁mittler	-3483
▁nivelin	-3484
▁nivelit	-3485
▁nxehtit	-3486
▁ofrojnë	-3487
▁prozent	-3488
▁qarkull	-3489
▁quellen	-3490
▁reflekt	-3491
▁relativ	-3492
▁siguron	-3493
▁solcher	-3494
▁steigen	-3495
▁verwend	-3496
▁vjetore	-3497
▁überleg	-3498
belastung	-3499
erzeugung	-3500
▁adresuar	-3501
▁bedenken	-3502
▁bereiche	-3503
▁bestehen	-3504
▁danimark	-3505
▁direkten	-3506
▁ekonomia	-3507
▁gezielte	-3508
▁konsumin	-3509
▁kufizuar	-3510
▁lidhjeve	-3511
▁presione	-3512
▁riciklim	-3513
▁tematike	-3514
▁territor	-3515
▁theksuar	-3516
▁tregtisë	-3517
▁zeitraum	-3518
verbrauchs	-3519
▁ackerland	-3520
▁beschleun	-3521
▁brendshëm	-3522
▁bujqësinë	-3523
▁ekspozimi	-3524
▁elektrike	-3525
▁gemeinsam	-3526
▁implement	-3527
▁indikator	-3528
▁künftigen	-3529
▁megatrend	-3530
▁potenzial	-3531
▁problemet	-3532
▁përshpejt	-3533
▁ressource	-3534
▁sektorale	-3535
▁sektorëve	-3536
▁sistemeve	-3537
▁sëmundjet	-3538
▁theksuara	-3539
▁wettbewer	-3540
licherweise	-3541
▁aktualisht	-3542
▁angesichts	-3543
▁ausgesetzt	-3544
▁beeinfluss	-3545
▁belastungs	-3546
▁berechnung	-3547
▁biologjike	-3548
▁darstellen	-3549
▁gjenerimit	-3550
▁leistungen	-3551
▁ndryshimin	-3552
▁schadstoff	-3553
▁sektoralen	-3554
▁shqetësime	-3555
▁verbrauchs	-3556
▁verteilung	-3557
▁weitgehend	-3558
▁aktivitetet	-3559
▁erneuerbare	-3560
▁industriale	-3561
▁lebensjahre	-3562
▁politischen	-3563
▁përbashkëta	-3564
▁përgjithësi	-3565
▁trinkwasser	-3566
▁tätigkeiten	-3567
menrichtlinie	-3568
veränderungen	-3569
▁gleichzeitig	-3570
▁griechenland	-3571
▁jahrhunderts	-3572
▁legjislacion	-3573
▁schadstoffen	-3574
▁systemischen	-3575
▁verschiedene	-3576
▁meeresspiegel	-3577
▁umweltpolitik	-3578
▁beispielsweise	-3579
▁biodiversiteti	-3580
▁abfallaufkommen	-3581
▁berücksichtigen	-3582
▁bewirtschaftung	-3583
▁herausforderung	-3584
▁infrastrukturës	-3585
▁qëndrueshmërinë	-3586
.1	-3587
1)	-3588
co	-3589
hä	-3590
ös	-3591
▁y	-3592
bed	-3593
bla	-3594
bot	-3595
cco	-3596
chs	-3597
die	-3598
gel	-3599
gro	-3600
iff	-3601
ign	-3602
izn	-3603
kul	-3604
mea	-3605
nde	-3606
ner	-3607
qyr	-3608
rim	-3609
ugs	-3610
umt	-3611
una	-3612
▁18	-3613
▁ht	-3614
▁km	-3615
▁kn	-3616
▁li	-3617
▁pe	-3618
▁us	-3619
▁ëm	-3620
-27,	-3621
ajis	-3622
amil	-3623
anti	-3624
aqës	-3625
dhën	-3626
eter	-3627
gere	-3628
grar	-3629
haft	-3630
hmër	-3631
iell	-3632
igat	-3633
iten	-3634
jetë	-3635
klim	-3636
klus	-3637
ksam	-3638
läuf	-3639
ojat	-3640
oper	-3641
wind	-3642
zean	-3643
äden	-3644
▁196	-3645
▁3).	-3646
▁ban	-3647
▁beg	-3648
▁bim	-3649
▁cen	-3650
▁eku	-3651
▁frü	-3652
▁gam	-3653
▁gje	-3654
▁jap	-3655
▁kan	-3656
▁mik	-3657
▁mos	-3658
▁nan	-3659
▁pyj	-3660
▁sen	-3661
▁spe	-3662
▁süß	-3663
▁tij	-3664
▁weg	-3665
▁zie	-3666
▁zul	-3667
ajmër	-3668
andaj	-3669
ander	-3670
atërr	-3671
ccoun	-3672
centr	-3673
einst	-3674
front	-3675
gaben	-3676
grupp	-3677
halte	-3678
ichte	-3679
ishta	-3680
kannt	-3681
kraft	-3682
ostat	-3683
rofik	-3684
ushtë	-3685
wegen	-3686
ützen	-3687
▁2003	-3688
▁afër	-3689
▁arsy	-3690
▁bizn	-3691
▁cili	-3692
▁drit	-3693
▁dyja	-3694
▁erst	-3695
▁ganz	-3696
▁jene	-3697
▁masa	-3698
▁mend	-3699
▁migr	-3700
▁part	-3701
▁pyje	-3702
▁rest	-3703
▁tonë	-3704
▁wert	-3705
▁çeke	-3706
ations	-3707
atësia	-3708
bedarf	-3709
bilanz	-3710
islauf	-3711
izität	-3712
treten	-3713
trächt	-3714
umwelt	-3715
▁2007,	-3716
▁absol	-3717
▁agrar	-3718
▁allen	-3719
▁beträ	-3720
▁böden	-3721
▁ermög	-3722
▁famil	-3723
▁flora	-3724
▁frank	-3725
▁gjerm	-3726
▁ishin	-3727
▁letzt	-3728
▁ligat	-3729
▁macht	-3730
▁mbajt	-3731
▁mesme	-3732
▁niedr	-3733
▁norve	-3734
▁pajis	-3735
▁pjesa	-3736
▁popul	-3737
▁quant	-3738
▁raste	-3739
▁regul	-3740
▁schäd	-3741
▁shkur	-3742
▁sogar	-3743
▁somit	-3744
▁steht	-3745
▁stres	-3746
▁strom	-3747
▁total	-3748
▁veget	-3749
▁vërsh	-3750
▁weise	-3751
▁zeigt	-3752
▁ëmbla	-3753
anstieg	-3754
erstatt	-3755
ifikuar	-3756
ordnung	-3757
smuster	-3758
ssystem	-3759
▁accoun	-3760
▁angazh	-3761
▁ardhur	-3762
▁bashkë	-3763
▁besteh	-3764
▁bulgar	-3765
▁corine	-3766
▁darauf	-3767
▁ebenso	-3768
▁feinst	-3769
▁fragen	-3770
▁fällen	-3771
▁förder	-3772
▁humbje	-3773
▁katast	-3774
▁kontin	-3775
▁kooper	-3776
▁masave	-3777
▁mbetet	-3778
▁natura	-3779
▁ngjash	-3780
▁niveau	-3781
▁quelle	-3782
▁selbst	-3783
▁shtesë	-3784
▁sugjer	-3785
▁teilen	-3786
▁vektor	-3787
▁vërtet	-3788
▁ziehen	-3789
einander	-3790
änderung	-3791
▁ardhura	-3792
▁dëmshme	-3793
▁erfasst	-3794
▁erhöhte	-3795
▁fqinjët	-3796
▁fëmijët	-3797
▁geführt	-3798
▁gjelbra	-3799
▁handels	-3800
▁importe	-3801
▁ngushtë	-3802
▁prandaj	-3803
▁schaden	-3804
▁schritt	-3805
▁schäden	-3806
▁solchen	-3807
▁stellen	-3808
▁ushqimi	-3809
▁vazhdon	-3810
▁veprime	-3811
▁veçanta	-3812
▁veçanti	-3813
▁veçantë	-3814
▁zbutjen	-3815
▁zukunft	-3816
frontiert	-3817
mittelbar	-3818
▁bestände	-3819
▁biomasse	-3820
▁erhöhung	-3821
▁eutrofik	-3822
▁fragment	-3823
▁grimcore	-3824
▁grundleg	-3825
▁kafshëve	-3826
▁klimasch	-3827
▁kontamin	-3828
▁mbulesën	-3829
▁ndryshim	-3830
▁nxjerrja	-3831
▁peshkimi	-3832
▁rezervat	-3833
▁sektorët	-3834
▁shërbime	-3835
▁terrestr	-3836
▁trajtuar	-3837
▁verkehrs	-3838
▁çështjet	-3839
▁brendshme	-3840
▁energjinë	-3841
▁gestiegen	-3842
▁kombinuar	-3843
▁komponent	-3844
▁konflikte	-3845
▁ndjeshmër	-3846
▁përdorura	-3847
▁rezultuar	-3848
▁schwellen	-3849
▁steigende	-3850
▁strategie	-3851
▁umweltthe	-3852
▁verpflich	-3853
▁entwickeln	-3854
▁frankreich	-3855
▁funktionen	-3856
▁gemeinsame	-3857
▁gjenerimin	-3858
▁integrimin	-3859
▁konkurrenc	-3860
▁llogaritja	-3861
▁paralajmër	-3862
▁perspektiv	-3863
▁pesticidet	-3864
▁potenziell	-3865
▁produkteve	-3866
▁përpjekjet	-3867
▁qeverisjes	-3868
▁reduzieren	-3869
▁verbessert	-3870
▁veränderte	-3871
▁wesentlich	-3872
▁zhvillimit	-3873
▁allgemeinen	-3874
▁beeinträcht	-3875
▁deutschland	-3876
▁environment	-3877
▁gemeinsamen	-3878
▁hitzewellen	-3879
▁jahrzehnten	-3880
▁komplexität	-3881
▁llogaritjen	-3882
▁politischer	-3883
▁përfitimeve	-3884
▁përmbytjeve	-3885
▁shëndetshme	-3886
▁sozioökonom	-3887
▁systemische	-3888
▁unmittelbar	-3889
▁verfügbaren	-3890
▁abhängigkeit	-3891
▁beeinflussen	-3892
▁entwicklungs	-3893
▁konfrontiert	-3894
▁luftqualität	-3895
▁ndërkombëtar	-3896
▁shfrytëzimin	-3897
▁shfrytëzimit	-3898
▁technologien	-3899
▁eutrophierung	-3900
▁feuchtgebiete	-3901
▁möglichkeiten	-3902
▁verfügbarkeit	-3903
▁möglicherweise	-3904
▁technologische	-3905
▁unsicherheiten	-3906
▁wasserknappheit	-3907
);	-3908
,5	-3909
-3	-3910
.;	-3911
//	-3912
cë	-3913
fd	-3914
fp	-3915
në	-3916
që	-3917
ub	-3918
öt	-3919
001	-3920
://	-3921
amm	-3922
aqe	-3923
arn	-3924
ati	-3925
bel	-3926
dhë	-3927
ear	-3928
eme	-3929
hje	-3930
ilt	-3931
jtë	-3932
knü	-3933
prü	-3934
sor	-3935
spl	-3936
uaj	-3937
vit	-3938
zur	-3939
zus	-3940
ënj	-3941
▁12	-3942
▁ak	-3943
▁dr	-3944
▁vë	-3945
anci	-3946
ange	-3947
apaz	-3948
aqet	-3949
cept	-3950
chan	-3951
edia	-3952
fern	-3953
hält	-3954
igem	-3955
imor	-3956
ioze	-3957
itës	-3958
kohë	-3959
leit	-3960
mung	-3961
nutz	-3962
stin	-3963
uale	-3964
ulim	-3965
urse	-3966
venc	-3967
wand	-3968
ässt	-3969
ünst	-3970
▁2).	-3971
▁ana	-3972
▁arg	-3973
▁bew	-3974
▁erd	-3975
▁far	-3976
▁fit	-3977
▁fiz	-3978
▁hly	-3979
▁hul	-3980
▁kyç	-3981
▁lin	-3982
▁lob	-3983
▁lul	-3984
▁näm	-3985
▁paq	-3986
▁ppm	-3987
▁tan	-3988
▁tip	-3989
alten	-3990
arbur	-3991
azhet	-3992
chtet	-3993
eller	-3994
elten	-3995
fahrt	-3996
ffung	-3997
fläch	-3998
inden	-3999
kaniz	-4000
lande	-4001
oksid	-4002
ordin	-4003
print	-4004
recht	-4005
schri	-4006
shkur	-4007
stein	-4008
thort	-4009
ultur	-4010
ument	-4011
unter	-4012
verme	-4013
ziele	-4014
örung	-4015
▁(3).	-4016
▁1970	-4017
▁1998	-4018
▁abst	-4019
▁barr	-4020
▁cakt	-4021
▁drei	-4022
▁empf	-4023
▁euro	-4024
▁gilt	-4025
▁glet	-4026
▁hjet	-4027
▁http	-4028
▁kund	-4029
▁masë	-4030
▁meqë	-4031
▁muss	-4032
▁nord	-4033
▁pyet	-4034
▁reag	-4035
▁sasi	-4036
▁schn	-4037
▁schw	-4038
▁ster	-4039
▁tona	-4040
▁trop	-4041
▁ulur	-4042
▁unge	-4043
▁wiss	-4044
▁zogj	-4045
▁zwei	-4046
aqesin	-4047
artung	-4048
derisa	-4049
flusst	-4050
gefahr	-4051
ikurse	-4052
iligen	-4053
jahren	-4054
kosten	-4055
oqoftë	-4056
punkte	-4057
rieben	-4058
zeiten	-4059
ëmbajt	-4060
▁abbau	-4061
▁ambic	-4062
▁aquat	-4063
▁autor	-4064
▁bemüh	-4065
▁dobët	-4066
▁erken	-4067
▁führt	-4068
▁gener	-4069
▁grenz	-4070
▁höher	-4071
▁ihnen	-4072
▁initi	-4073
▁kimik	-4074
▁kohës	-4075
▁konze	-4076
▁kopen	-4077
▁kstin	-4078
▁masat	-4079
▁metod	-4080
▁ndërk	-4081
▁ndërr	-4082
▁origj	-4083
▁ozean	-4084
▁qartë	-4085
▁qendr	-4086
▁reich	-4087
▁rëndë	-4088
▁thell	-4089
▁trotz	-4090
▁uljen	-4091
▁vogla	-4092
▁vësht	-4093
▁würde	-4094
▁öster	-4095
anlagen	-4096
chische	-4097
effekte	-4098
geführt	-4099
grenzen	-4100
indikat	-4101
problem	-4102
ssektor	-4103
vencion	-4104
wässern	-4105
ziellen	-4106
▁azotit	-4107
▁bewert	-4108
▁bewäss	-4109
▁biznes	-4110
▁burime	-4111
▁burimi	-4112
▁ersten	-4113
▁fläche	-4114
▁forsch	-4115
▁genutz	-4116
▁hulumt	-4117
▁inländ	-4118
▁kinder	-4119
▁mundur	-4120
▁pjesën	-4121
▁prekur	-4122
▁propoz	-4123
▁pyjore	-4124
▁qasjes	-4125
▁rriten	-4126
▁sommer	-4127
▁suedia	-4128
▁umfang	-4129
▁verbre	-4130
▁verknü	-4131
▁vlerat	-4132
▁zielen	-4133
▁zvicra	-4134
gjatësia	-4135
ifffahrt	-4136
ografike	-4137
regionen	-4138
ueshmëri	-4139
▁abfluss	-4140
▁arrihet	-4141
▁begrenz	-4142
▁berechn	-4143
▁dennoch	-4144
▁entspre	-4145
▁gebiete	-4146
▁gesehen	-4147
▁gletsch	-4148
▁humbjen	-4149
▁infolge	-4150
▁italien	-4151
▁konvent	-4152
▁koordin	-4153
▁mundësi	-4154
▁natyrës	-4155
▁nämlich	-4156
▁oqeanit	-4157
▁pasojat	-4158
▁prodhim	-4159
▁ruajtja	-4160
▁schlech	-4161
▁schließ	-4162
▁sollten	-4163
▁soziale	-4164
▁vernetz	-4165
▁versorg	-4166
▁wissens	-4167
▁zbatimi	-4168
▁zvogëlo	-4169
▁überprü	-4170
bereichen	-4171
erwartung	-4172
schriften	-4173
sprozesse	-4174
strategie	-4175
tschaften	-4176
▁analysen	-4177
▁arritjen	-4178
▁arritjes	-4179
▁elemente	-4180
▁energjia	-4181
▁erreicht	-4182
▁erschöpf	-4183
▁eurostat	-4184
▁gefahren	-4185
▁gjendjes	-4186
▁großteil	-4187
▁importet	-4188
▁komunale	-4189
▁konflikt	-4190
▁kushteve	-4191
▁lumenjve	-4192
▁ndjeshëm	-4193
▁ndërkohë	-4194
▁norwegen	-4195
▁raumplan	-4196
▁rechnung	-4197
▁regjistr	-4198
▁rohstoff	-4199
▁rrezikun	-4200
▁ruajtjen	-4201
▁schweden	-4202
▁shkatërr	-4203
▁shmangur	-4204
▁sozialen	-4205
▁sëmundje	-4206
▁tërthort	-4207
▁ursachen	-4208
▁vendosur	-4209
▁verloren	-4210
behandlung	-4211
erstattung	-4212
mitgliedsl	-4213
vermeidung	-4214
▁auftreten	-4215
▁bashkuara	-4216
▁bioenergj	-4217
▁biologjik	-4218
▁bulgarien	-4219
▁danimarka	-4220
▁ebenfalls	-4221
▁einkommen	-4222
▁ekonominë	-4223
▁feinstaub	-4224
▁gjermania	-4225
▁grundlage	-4226
▁inovacion	-4227
▁kimikatet	-4228
▁komplekse	-4229
▁kontribut	-4230
▁kurzfrist	-4231
▁mirëmbajt	-4232
▁mittleren	-4233
▁mëparshëm	-4234
▁ndërtimit	-4235
▁negativen	-4236
▁norvegjia	-4237
▁nährstoff	-4238
▁peshkimit	-4239
▁pestizide	-4240
▁praktikat	-4241
▁përderisa	-4242
▁përpjekje	-4243
▁përqindja	-4244
▁rohstoffe	-4245
▁rregullor	-4246
▁shqetësim	-4247
▁sidoqoftë	-4248
▁süßwasser	-4249
▁tourismus	-4250
▁transform	-4251
▁umfassend	-4252
▁veprimtar	-4253
▁verunrein	-4254
▁zvogëluar	-4255
▁bemühungen	-4256
▁beobachtet	-4257
▁betrachtet	-4258
▁globalisht	-4259
▁intensifik	-4260
▁investimet	-4261
▁jeweiligen	-4262
▁kommission	-4263
▁landschaft	-4264
▁lebensraum	-4265
▁materialet	-4266
▁organizata	-4267
▁plotësisht	-4268
▁përgjegjës	-4269
▁rrezikshme	-4270
▁shpenzimet	-4271
▁sipërfaqes	-4272
▁stickstoff	-4273
▁städtische	-4274
▁verbindung	-4275
▁vërshimeve	-4276
▁zunehmende	-4277
▁ökosystems	-4278
▁österreich	-4279
▁bedingungen	-4280
▁beeinflusst	-4281
▁erzeugnisse	-4282
▁instrumente	-4283
▁integration	-4284
▁klimaschutz	-4285
▁lebensräume	-4286
▁prioritäten	-4287
▁reduzierung	-4288
▁zunehmenden	-4289
▁öffentliche	-4290
▁klimatischen	-4291
▁shpërndarjen	-4292
▁umweltbeding	-4293
▁ökologischer	-4294
▁überlegungen	-4295
▁investitionen	-4296
▁nachbarschaft	-4297
▁pamjaftueshme	-4298
▁temperaturave	-4299
▁umweltproblem	-4300
▁unterstützung	-4301
▁vergangenheit	-4302
bewirtschaftung	-4303
▁bereitstellung	-4304
▁straßenverkehr	-4305
▁zurückgegangen	-4306
13	-4307
7)	-4308
8%	-4309
bd	-4310
df	-4311
ea	-4312
ei	-4313
hl	-4314
km	-4315
▁ü	-4316
▁ý	-4317
ais	-4318
cil	-4319
ckt	-4320
dmc	-4321
ieb	-4322
inv	-4323
ize	-4324
lik	-4325
mën	-4326
oth	-4327
sum	-4328
weg	-4329
äft	-4330
öst	-4331
▁16	-4332
▁21	-4333
▁55	-4334
▁6.	-4335
▁75	-4336
▁ai	-4337
▁aq	-4338
▁ba	-4339
▁hy	-4340
▁no	-4341
▁sä	-4342
▁ta	-4343
▁zj	-4344
▁çm	-4345
ator	-4346
back	-4347
esen	-4348
eure	-4349
fekt	-4350
gjet	-4351
ieve	-4352
ikel	-4353
ikës	-4354
ilib	-4355
itut	-4356
ivid	-4357
jekt	-4358
kupt	-4359
lant	-4360
marr	-4361
nach	-4362
nete	-4363
pekt	-4364
reif	-4365
save	-4366
smet	-4367
stab	-4368
strö	-4369
tere	-4370
ugen	-4371
urit	-4372
vers	-4373
ärmb	-4374
ësit	-4375
ögel	-4376
üsse	-4377
▁10%	-4378
▁100	-4379
▁8).	-4380
▁com	-4381
▁dom	-4382
▁gis	-4383
▁gra	-4384
▁gut	-4385
▁iso	-4386
▁kle	-4387
▁kuj	-4388
▁lux	-4389
▁pan	-4390
▁pij	-4391
▁poz	-4392
▁pra	-4393
▁rat	-4394
▁sez	-4395
▁süd	-4396
▁tri	-4397
▁trä	-4398
▁woh	-4399
angen	-4400
boden	-4401
erdem	-4402
htens	-4403
idion	-4404
ieträ	-4405
ikimi	-4406
ionet	-4407
irjen	-4408
itäre	-4409
izimi	-4410
keqës	-4411
klang	-4412
klima	-4413
nland	-4414
retër	-4415
rohen	-4416
rohet	-4417
schad	-4418
uajse	-4419
ungsm	-4420
ungss	-4421
wachs	-4422
werte	-4423
ësimi	-4424
▁2012	-4425
▁ajri	-4426
▁anën	-4427
▁beim	-4428
▁berg	-4429
▁biot	-4430
▁bull	-4431
▁eind	-4432
▁erde	-4433
▁fisk	-4434
▁gamë	-4435
▁gati	-4436
▁gjur	-4437
▁grön	-4438
▁herë	-4439
▁ital	-4440
▁konn	-4441
▁lauf	-4442
▁luks	-4443
▁lärm	-4444
▁mach	-4445
▁maße	-4446
▁medi	-4447
▁meer	-4448
▁menç	-4449
▁peiz	-4450
▁phys	-4451
▁poth	-4452
▁prag	-4453
▁prov	-4454
▁seri	-4455
▁unbe	-4456
▁wind	-4457
▁zehn	-4458
aktion	-4459
dessen	-4460
edback	-4461
endëve	-4462
gesund	-4463
handel	-4464
hinder	-4465
indest	-4466
inform	-4467
invest	-4468
isches	-4469
içient	-4470
kungen	-4471
schätz	-4472
tokoll	-4473
ustria	-4474
wertet	-4475
zicion	-4476
ändnis	-4477
▁(13),	-4478
▁(19).	-4479
▁(25).	-4480
▁2010,	-4481
▁anste	-4482
▁aplik	-4483
▁bëhen	-4484
▁china	-4485
▁cilën	-4486
▁darin	-4487
▁duhur	-4488
▁elast	-4489
▁ergän	-4490
▁erhol	-4491
▁favor	-4492
▁fondi	-4493
▁fqinj	-4494
▁gehen	-4495
▁guten	-4496
▁harxh	-4497
▁hohem	-4498
▁könig	-4499
▁leist	-4500
▁lokal	-4501
▁lulëz	-4502
▁lässt	-4503
▁lëndë	-4504
▁markt	-4505
▁meere	-4506
▁namea	-4507
▁natës	-4508
▁neben	-4509
▁ngjar	-4510
▁offen	-4511
▁pakta	-4512
▁pavar	-4513
▁pellg	-4514
▁pjell	-4515
▁polen	-4516
▁pyjet	-4517
▁qoftë	-4518
▁rrugë	-4519
▁rënda	-4520
▁seine	-4521
▁shtyt	-4522
▁terma	-4523
▁tjerë	-4524
▁tsche	-4525
▁turiz	-4526
▁umgeb	-4527
▁varet	-4528
▁vlerë	-4529
▁wachs	-4530
barkeit	-4531
bericht	-4532
erosion	-4533
führten	-4534
führung	-4535
gruppen	-4536
habitat	-4537
ierungs	-4538
itucion	-4539
kapital	-4540
quellen	-4541
raksion	-4542
risiken	-4543
ushtuar	-4544
▁arbeit	-4545
▁arktis	-4546
▁deuten	-4547
▁dimens	-4548
▁export	-4549
▁faktor	-4550
▁fillim	-4551
▁finanz	-4552
▁fossil	-4553
▁implik	-4554
▁jetese	-4555
▁kthese	-4556
▁kujdes	-4557
▁kullot	-4558
▁mallra	-4559
▁mengen	-4560
▁ndikon	-4561
▁niveli	-4562
▁objekt	-4563
▁paprit	-4564
▁pastër	-4565
▁produz	-4566
▁rechts	-4567
▁result	-4568
▁rrugor	-4569
▁rrugët	-4570
▁shimet	-4571
▁shumëf	-4572
▁steigt	-4573
▁städte	-4574
▁themen	-4575
▁valëve	-4576
▁verlag	-4577
▁vjetor	-4578
▁weisen	-4579
▁winter	-4580
gestellt	-4581
gewässer	-4582
icitetit	-4583
ierungen	-4584
ksamkeit	-4585
liegende	-4586
ryshimet	-4587
spolitik	-4588
ulierung	-4589
▁angebot	-4590
▁anteils	-4591
▁arbeits	-4592
▁austria	-4593
▁beitrag	-4594
▁belgien	-4595
▁bestand	-4596
▁bujqësi	-4597
▁bullgar	-4598
▁drejtim	-4599
▁dyoksid	-4600
▁einzugs	-4601
▁ekuilib	-4602
▁erzielt	-4603
▁faktorë	-4604
▁fiskale	-4605
▁fossile	-4606
▁größten	-4607
▁hershme	-4608
▁islanda	-4609
▁klimati	-4610
▁koncept	-4611
▁kërkojë	-4612
▁langsam	-4613
▁mbretër	-4614
▁mekaniz	-4615
▁mënyrën	-4616
▁ndihmoj	-4617
▁ngritur	-4618
▁nënkupt	-4619
▁pijshëm	-4620
▁prozess	-4621
▁përgjig	-4622
▁qasjeve	-4623
▁redukto	-4624
▁rrjetet	-4625
▁schweiz	-4626
▁schwerw	-4627
▁spanien	-4628
▁spielen	-4629
▁taksave	-4630
▁tendenz	-4631
▁tokësor	-4632
▁tregtia	-4633
▁trupave	-4634
▁unserer	-4635
▁unseres	-4636
▁vendban	-4637
▁veriore	-4638
▁wäldern	-4639
▁zuletzt	-4640
▁überste	-4641
.........	-4642
effizient	-4643
erstörung	-4644
kreislauf	-4645
ventionen	-4646
ärmbelast	-4647
▁abhängig	-4648
▁accounts	-4649
▁aftësinë	-4650
▁aspektet	-4651
▁ausreich	-4652
▁außerdem	-4653
▁bashkuar	-4654
▁beschrän	-4655
▁biokraft	-4656
▁einklang	-4657
▁erhöhten	-4658
▁finnland	-4659
▁geschätz	-4660
▁hinblick	-4661
▁kaluarën	-4662
▁kapitujt	-4663
▁kohärenz	-4664
▁kërkesat	-4665
▁mehreren	-4666
▁meridion	-4667
▁nationen	-4668
▁ndryshëm	-4669
▁ndërmjet	-4670
▁ndërthur	-4671
▁ndërtuar	-4672
▁ngjashme	-4673
▁pflanzen	-4674
▁përkeqës	-4675
▁qendrore	-4676
▁richtung	-4677
▁ripërdor	-4678
▁schadens	-4679
▁shkallën	-4680
▁shkallës	-4681
▁sigurinë	-4682
▁sistemit	-4683
▁steuerre	-4684
▁tanishme	-4685
▁transmet	-4686
▁umfassen	-4687
▁verschär	-4688
▁zustands	-4689
ifizierung	-4690
management	-4691
verwendung	-4692
▁abbildung	-4693
▁adaptimit	-4694
▁afatshkur	-4695
▁auswirken	-4696
▁bedrohung	-4697
▁deutliche	-4698
▁efiçienca	-4699
▁enthalten	-4700
▁erfordert	-4701
▁gefährdet	-4702
▁gewinnung	-4703
▁gjenerimi	-4704
▁haushalte	-4705
▁investuar	-4706
▁kohärente	-4707
▁komisioni	-4708
▁krahasuar	-4709
▁kuptuarit	-4710
▁luxemburg	-4711
▁mëtejshme	-4712
▁nationale	-4713
▁ndihmojnë	-4714
▁ngarkesës	-4715
▁njerëzore	-4716
▁paraqesin	-4717
▁politiken	-4718
▁pothuajse	-4719
▁përballen	-4720
▁përfshinë	-4721
▁reduktimi	-4722
▁shoqërisë	-4723
▁sigurimin	-4724
▁tërthorta	-4725
▁vazhdojnë	-4726
▁vereinten	-4727
▁verschieb	-4728
▁vollständ	-4729
▁wachstums	-4730
▁wasserent	-4731
▁aktivitete	-4732
▁bregdetare	-4733
▁ekosisteme	-4734
▁ekspozimin	-4735
▁energieträ	-4736
▁instrument	-4737
▁jährlichen	-4738
▁königreich	-4739
▁luksemburg	-4740
▁management	-4741
▁mbështetet	-4742
▁ngadalshme	-4743
▁organismen	-4744
▁pasiguritë	-4745
▁pestiziden	-4746
▁pjesërisht	-4747
▁popullatës	-4748
▁potenciale	-4749
▁produktive	-4750
▁përjashtim	-4751
▁qytetarëve	-4752
▁rezultatet	-4753
▁sicherheit	-4754
▁standardet	-4755
▁substancat	-4756
▁tranzicion	-4757
▁vegetation	-4758
▁verbessern	-4759
▁verringert	-4760
▁verstärken	-4761
▁zhvilluara	-4762
▁zusätzlich	-4763
gliedstaaten	-4764
organisation	-4765
vorschriften	-4766
wirtschaften	-4767
▁bestehenden	-4768
▁bewertungen	-4769
▁erheblichen	-4770
▁institucion	-4771
▁langfristig	-4772
▁mjaftueshëm	-4773
▁ndërlidhura	-4774
▁niederlande	-4775
▁parandalimi	-4776
▁planifikimi	-4777
▁produktions	-4778
▁përkushtuar	-4779
▁raumplanung	-4780
▁standardeve	-4781
▁strategjisë	-4782
▁thematische	-4783
▁transportin	-4784
▁verbraucher	-4785
▁verständnis	-4786
▁verzeichnen	-4787
▁wettbewerbs	-4788
▁zahlreichen	-4789
▁übernutzung	-4790
▁aktiviteteve	-4791
▁anfälligkeit	-4792
▁hinsichtlich	-4793
▁informations	-4794
▁konsiderohet	-4795
▁langfristige	-4796
▁lebenszyklus	-4797
▁parandalimin	-4798
▁përqendrimit	-4799
▁umweltthemen	-4800
▁unterstützen	-4801
▁verpflichtet	-4802
▁environmental	-4803
▁konsumatorëve	-4804
▁ndërkombëtare	-4805
▁ripërtëritëse	-4806
mitgliedsländer	-4807
▁berücksichtigt	-4808
▁internationale	-4809
▁prognostiziert	-4810
▁socioekonomike	-4811
▁treibhausgasen	-4812
▁infrastrukturen	-4813
▁infrastrukturën	-4814
▁produktivitetit	-4815
*)	-4816
,4	-4817
3%	-4818
35	-4819
90	-4820
ex	-4821
hg	-4822
ho	-4823
▁"	-4824
-20	-4825
ari	-4826
asa	-4827
bas	-4828
bew	-4829
eld	-4830
fro	-4831
grü	-4832
ici	-4833
ids	-4834
ild	-4835
inn	-4836
irr	-4837
jeç	-4838
jni	-4839
kür	-4840
mil	-4841
mut	-4842
nor	-4843
orf	-4844
oto	-4845
pdf	-4846
pft	-4847
pëz	-4848
rrl	-4849
spr	-4850
uan	-4851
uen	-4852
uor	-4853
wär	-4854
yll	-4855
äum	-4856
▁%)	-4857
▁),	-4858
▁24	-4859
▁38	-4860
▁80	-4861
▁db	-4862
▁ft	-4863
▁qi	-4864
▁ro	-4865
▁vi	-4866
▁çf	-4867
ache	-4868
akei	-4869
akon	-4870
amik	-4871
anda	-4872
arkt	-4873
atik	-4874
bild	-4875
buch	-4876
chte	-4877
deku	-4878
duke	-4879
enze	-4880
erem	-4881
erhö	-4882
erin	-4883
etet	-4884
etra	-4885
fält	-4886
hezu	-4887
hill	-4888
ihen	-4889
ijtë	-4890
ikas	-4891
ioni	-4892
jerë	-4893
jähr	-4894
klen	-4895
kont	-4896
line	-4897
mave	-4898
ogra	-4899
ogël	-4900
orra	-4901
otos	-4902
over	-4903
pesh	-4904
rate	-4905
rund	-4906
räge	-4907
ujve	-4908
umul	-4909
viel	-4910
werk	-4911
wähl	-4912
zust	-4913
ëjnë	-4914
▁(*)	-4915
▁(24	-4916
▁203	-4917
▁40°	-4918
▁7).	-4919
▁bën	-4920
▁dër	-4921
▁eap	-4922
▁fle	-4923
▁fot	-4924
▁gab	-4925
▁grü	-4926
▁häl	-4927
▁kro	-4928
▁lif	-4929
▁lös	-4930
▁max	-4931
▁mon	-4932
▁nit	-4933
▁oks	-4934
▁pad	-4935
▁sit	-4936
▁tab	-4937
▁tie	-4938
▁wod	-4939
▁zuk	-4940
▁çon	-4941
▁öko	-4942
▁öst	-4943
artet	-4944
bezie	-4945
chter	-4946
cioni	-4947
endja	-4948
erial	-4949
erken	-4950
ertif	-4951
fauna	-4952
gegen	-4953
güter	-4954
igent	-4955
ikave	-4956
ikuar	-4957
irrje	-4958
itëse	-4959
kehrt	-4960
kmale	-4961
leben	-4962
lerës	-4963
licht	-4964
mafro	-4965
menge	-4966
onale	-4967
oplan	-4968
oqeve	-4969
oshta	-4970
pozit	-4971
reize	-4972
riffe	-4973
slast	-4974
swert	-4975
teilt	-4976
uesve	-4977
vögel	-4978
wicht	-4979
wirkt	-4980
änien	-4981
ëshir	-4982
üssel	-4983
▁(1).	-4984
▁(7).	-4985
▁ball	-4986
▁bart	-4987
▁beur	-4988
▁diff	-4989
▁eher	-4990
▁ekst	-4991
▁erwä	-4992
▁folg	-4993
▁grad	-4994
▁holl	-4995
▁höhe	-4996
▁kanc	-4997
▁line	-4998
▁mbar	-4999
▁mess	-5000
▁mira	-5001
▁ndal	-5002
▁näch	-5003
▁nënv	-5004
▁pajt	-5005
▁pasi	-5006
▁publ	-5007
▁përv	-5008
▁real	-5009
▁räum	-5010
▁shkr	-5011
▁sied	-5012
▁sign	-5013
▁soer	-5014
▁stre	-5015
▁stör	-5016
▁toks	-5017
▁tërë	-5018
▁umge	-5019
▁vetë	-5020
▁vite	-5021
▁wohn	-5022
▁wäre	-5023
▁year	-5024
alzung	-5025
anteil	-5026
assung	-5027
bereit	-5028
bevölk	-5029
formen	-5030
ichten	-5031
ichtet	-5032
izimin	-5033
kräfte	-5034
legung	-5035
lichem	-5036
liegen	-5037
mangel	-5038
mäßige	-5039
normen	-5040
ograph	-5041
ologie	-5042
reiben	-5043
ringen	-5044
setzen	-5045
streme	-5046
streng	-5047
ströme	-5048
ämmung	-5049
ökolog	-5050
▁(12).	-5051
▁(15).	-5052
▁(20).	-5053
▁(22).	-5054
▁(30).	-5055
▁1990,	-5056
▁1990.	-5057
▁2005.	-5058
▁2050,	-5059
▁adeku	-5060
▁admin	-5061
▁akull	-5062
▁armut	-5063
▁basis	-5064
▁blick	-5065
▁dhënë	-5066
▁domin	-5067
▁ereig	-5068
▁fizik	-5069
▁fluss	-5070
▁franc	-5071
▁gebur	-5072
▁gemäß	-5073
▁grupe	-5074
▁güter	-5075
▁indem	-5076
▁innen	-5077
▁japin	-5078
▁kurrë	-5079
▁lehtë	-5080
▁mirat	-5081
▁papër	-5082
▁peshq	-5083
▁preis	-5084
▁pusht	-5085
▁qarta	-5086
▁qipro	-5087
▁rekre	-5088
▁sipër	-5089
▁statt	-5090
▁sterb	-5091
▁säure	-5092
▁tokat	-5093
▁trieb	-5094
▁udhëz	-5095
▁unzur	-5096
▁varen	-5097
▁vogël	-5098
▁zhduk	-5099
▁zhvil	-5100
▁çfarë	-5101
▁çojnë	-5102
anciare	-5103
beutung	-5104
haltens	-5105
ishtore	-5106
mission	-5107
mitteln	-5108
prinzip	-5109
sterben	-5110
wirkung	-5111
zustand	-5112
ëndimor	-5113
übersch	-5114
▁anhand	-5115
▁atlant	-5116
▁aufbau	-5117
▁ausmaß	-5118
▁benach	-5119
▁besten	-5120
▁bilden	-5121
▁bleibt	-5122
▁cilave	-5123
▁derisa	-5124
▁effekt	-5125
▁efikas	-5126
▁eissch	-5127
▁ernähr	-5128
▁freien	-5129
▁früher	-5130
▁gebiet	-5131
▁gjetur	-5132
▁gjysmë	-5133
▁großen	-5134
▁hälfte	-5135
▁hängen	-5136
▁impian	-5137
▁infekt	-5138
▁irland	-5139
▁jendja	-5140
▁jugore	-5141
▁karbon	-5142
▁kiotos	-5143
▁kohore	-5144
▁kohëve	-5145
▁kommen	-5146
▁lindje	-5147
▁lindor	-5148
▁mangel	-5149
▁marino	-5150
▁mbetje	-5151
▁mbledh	-5152
▁metale	-5153
▁minier	-5154
▁multin	-5155
▁nahezu	-5156
▁ndarja	-5157
▁ndodhë	-5158
▁nevoja	-5159
▁nitrat	-5160
▁njeriu	-5161
▁norden	-5162
▁ozeane	-5163
▁pasojë	-5164
▁pastaj	-5165
▁ricikl	-5166
▁rrjeti	-5167
▁rëndom	-5168
▁shkark	-5169
▁shkurt	-5170
▁shtres	-5171
▁shtëpi	-5172
▁thellë	-5173
▁trafik	-5174
▁treten	-5175
▁turqia	-5176
▁ujërat	-5177
▁vendor	-5178
▁veriut	-5179
▁verste	-5180
▁vlerën	-5181
▁zogjtë	-5182
▁zonave	-5183
apazität	-5184
bereichs	-5185
faktoren	-5186
gewiesen	-5187
icionale	-5188
konzentr	-5189
osysteme	-5190
oxizität	-5191
position	-5192
wandlung	-5193
ädterung	-5194
▁ambient	-5195
▁andorra	-5196
▁aspekte	-5197
▁atmosph	-5198
▁bazuara	-5199
▁bergbau	-5200
▁bildung	-5201
▁depozit	-5202
▁deshalb	-5203
▁dukshëm	-5204
▁empfind	-5205
▁forcimi	-5206
▁geograf	-5207
▁grupeve	-5208
▁holanda	-5209
▁höheres	-5210
▁individ	-5211
▁irlanda	-5212
▁jedisit	-5213
▁jetesës	-5214
▁jetojnë	-5215
▁kaluara	-5216
▁kanaliz	-5217
▁kostoja	-5218
▁kufijtë	-5219
▁kultura	-5220
▁këshill	-5221
▁lihtens	-5222
▁lineare	-5223
▁malrave	-5224
▁mençura	-5225
▁metalet	-5226
▁mungesa	-5227
▁möglich	-5228
▁nahrung	-5229
▁ndodhin	-5230
▁ndoshta	-5231
▁ndotjen	-5232
▁ndotësi	-5233
▁ngritje	-5234
▁ngrohja	-5235
▁ofrimin	-5236
▁organik	-5237
▁paqëndr	-5238
▁paraqit	-5239
▁polonia	-5240
▁përfund	-5241
▁përshkr	-5242
▁rëndësi	-5243
▁sektorë	-5244
▁shkaqet	-5245
▁shtëpia	-5246
▁sikurse	-5247
▁sistemi	-5248
▁statusi	-5249
▁stoqeve	-5250
▁systeme	-5251
▁thirrje	-5252
▁treguar	-5253
▁umfasst	-5254
▁vërtetë	-5255
▁wodurch	-5256
▁zukünft	-5257
▁zunahme	-5258
arbeitung	-5259
arburante	-5260
chanismen	-5261
ennutzung	-5262
gewinnung	-5263
heitslast	-5264
icherheit	-5265
schritten	-5266
zustellen	-5267
▁2000-200	-5268
▁2000–200	-5269
▁anliegen	-5270
▁anstreng	-5271
▁basieren	-5272
▁beschäft	-5273
▁biomasës	-5274
▁dallimet	-5275
▁ekonomie	-5276
▁ekstrakt	-5277
▁ekstreme	-5278
▁elektron	-5279
▁emetimet	-5280
▁energien	-5281
▁erhöhtes	-5282
▁erkennen	-5283
▁erwarten	-5284
▁faktorët	-5285
▁forcimin	-5286
▁gjendjen	-5287
▁hinsicht	-5288
▁höchsten	-5289
▁krijimin	-5290
▁künftige	-5291
▁lebensst	-5292
▁liechten	-5293
▁mallrave	-5294
▁mbrojtja	-5295
▁methoden	-5296
▁ndjeshme	-5297
▁ndryshon	-5298
▁ndërmarr	-5299
▁ngjitëse	-5300
▁niveleve	-5301
▁organike	-5302
▁origjinë	-5303
▁permafro	-5304
▁pjellore	-5305
▁positive	-5306
▁pozitive	-5307
▁privaten	-5308
▁prodhuar	-5309
▁produkte	-5310
▁prozesse	-5311
▁përbëjnë	-5312
▁përfshin	-5313
▁përmbajt	-5314
▁rajoneve	-5315
▁reduktim	-5316
▁relative	-5317
▁rrjedhin	-5318
▁ruajtjes	-5319
▁rumänien	-5320
▁rückkopp	-5321
▁signifik	-5322
▁sistemik	-5323
▁sistemin	-5324
▁slowakei	-5325
▁statusin	-5326
▁trajtimi	-5327
▁vazhdojë	-5328
▁veprimit	-5329
▁versagen	-5330
▁vështirë	-5331
▁zbatimin	-5332
▁änderung	-5333
chnologien	-5334
intensität	-5335
richtungen	-5336
ueshmërisë	-5337
windigkeit	-5338
▁administr	-5339
▁aktuellen	-5340
▁ausgewähl	-5341
▁bashkimin	-5342
▁bullgaria	-5343
▁dimension	-5344
▁ecosystem	-5345
▁ekonomive	-5346
▁ekspozuar	-5347
▁emissions	-5348
▁erozionit	-5349
▁erwärmung	-5350
▁faktorëve	-5351
▁forschung	-5352
▁gewässern	-5353
▁gletscher	-5354
▁industria	-5355
▁integrues	-5356
▁kapitulli	-5357
▁koherente	-5358
▁konsumver	-5359
▁kulturave	-5360
▁kulturore	-5361
▁letztlich	-5362
▁marrëdhën	-5363
▁mbrojtjes	-5364
▁ndryshuar	-5365
▁nevojitet	-5366
▁niedrigem	-5367
▁njohurive	-5368
▁objektiva	-5369
▁objektivi	-5370
▁papritura	-5371
▁politikën	-5372
▁politikës	-5373
▁produkten	-5374
▁schaffung	-5375
▁shekullit	-5376
▁shoqërore	-5377
▁shpendëve	-5378
▁steuerung	-5379
▁stärksten	-5380
▁säurebild	-5381
▁themelore	-5382
▁tradition	-5383
▁trajtimit	-5384
▁umgekehrt	-5385
▁umgesetzt	-5386
▁unzureich	-5387
▁vendosjen	-5388
▁veprimeve	-5389
▁verarbeit	-5390
▁vermeiden	-5391
▁verstärkt	-5392
▁wichtiges	-5393
▁zhvilluar	-5394
▁zumindest	-5395
▁überfisch	-5396
bedingungen	-5397
belastungen	-5398
bevölkerung	-5399
information	-5400
▁arktischen	-5401
▁barishtore	-5402
▁behandlung	-5403
▁bioenergie	-5404
▁eindämmung	-5405
▁eingesetzt	-5406
▁entsorgung	-5407
▁ereignisse	-5408
▁financiare	-5409
▁funksionet	-5410
▁gjerësisht	-5411
▁importuara	-5412
▁industriel	-5413
▁informimit	-5414
▁integruara	-5415
▁interessen	-5416
▁jahrzehnte	-5417
▁kombinuara	-5418
▁komisionit	-5419
▁konsumiert	-5420
▁kontribuon	-5421
▁konvertimi	-5422
▁mbështetje	-5423
▁megatrends	-5424
▁ndryshojnë	-5425
▁ngarkesave	-5426
▁portugalia	-5427
▁prioritare	-5428
▁produziert	-5429
▁riciklimit	-5430
▁shkaktojnë	-5431
▁steigenden	-5432
▁sugjerojnë	-5433
▁tejkalojnë	-5434
▁thatësirat	-5435
▁verbundene	-5436
▁verursacht	-5437
▁verwertung	-5438
▁zerstörung	-5439
▁zhvillimet	-5440
ärproduktion	-5441
▁abstraksion	-5442
▁ermöglichen	-5443
▁erschöpfung	-5444
▁funksioneve	-5445
▁grünflächen	-5446
▁hintergrund	-5447
▁initiativen	-5448
▁inländische	-5449
▁integrierte	-5450
▁karakterist	-5451
▁komunitetin	-5452
▁lebenswicht	-5453
▁luksemburgu	-5454
▁mbeturinave	-5455
▁mbështetjen	-5456
▁mjaftueshme	-5457
▁oberflächen	-5458
▁pavarësisht	-5459
▁perspektive	-5460
▁perspektivë	-5461
▁potenzielle	-5462
▁rregullimin	-5463
▁schwerpunkt	-5464
▁schätzungen	-5465
▁shumëfishta	-5466
▁shëndetësor	-5467
▁substancave	-5468
▁verbundenen	-5469
▁versorgungs	-5470
▁vogelschutz	-5471
▁widerstands	-5472
▁zusätzliche	-5473
▁überprüfung	-5474
industriellen	-5475
ungsmaßnahmen	-5476
▁afatshkurtra	-5477
▁bioenergjisë	-5478
▁biologischer	-5479
▁gemeinschaft	-5480
▁integrierten	-5481
▁jetëgjatësia	-5482
▁konsumatorët	-5483
▁lebenszyklen	-5484
▁niederschlag	-5485
▁përqendrimet	-5486
▁temperaturen	-5487
▁tradicionale	-5488
▁umweltschutz	-5489
▁anstrengungen	-5490
▁bashkëpunuese	-5491
▁biokarburante	-5492
▁eigenschaften	-5493
▁energieträger	-5494
▁gleichgewicht	-5495
▁kooperierende	-5496
▁liechtenstein	-5497
▁sterblichkeit	-5498
▁verschmutzung	-5499
▁verstädterung	-5500
▁überschritten	-5501
▁flächennutzung	-5502
▁infrastrukturë	-5503
▁intensivierung	-5504
▁krankheitslast	-5505
▁meeresspiegels	-5506
▁zusammenarbeit	-5507
▁ökologisierung	-5508
▁geschwindigkeit	-5509
▁gesundheitliche	-5510
▁lebenserwartung	-5511
▁volkswirtschaft	-5512
,0	-5513
.2	-5514
2%	-5515
28	-5516
31	-5517
5)	-5518
ek	-5519
fc	-5520
ka	-5521
lz	-5522
qi	-5523
qy	-5524
rt	-5525
ua	-5526
zt	-5527
“)	-5528
▁*	-5529
▁.	-5530
▁=	-5531
121	-5532
9),	-5533
acc	-5534
ara	-5535
bip	-5536
bis	-5537
chl	-5538
csi	-5539
dit	-5540
ece	-5541
eil	-5542
emi	-5543
eri	-5544
eut	-5545
fft	-5546
gis	-5547
hag	-5548
hej	-5549
hyr	-5550
ikë	-5551
iox	-5552
ium	-5553
iza	-5554
ket	-5555
käm	-5556
lef	-5557
lle	-5558
mme	-5559
mov	-5560
nee	-5561
onë	-5562
ote	-5563
otë	-5564
raz	-5565
rik	-5566
rix	-5567
rof	-5568
she	-5569
sër	-5570
typ	-5571
utë	-5572
www	-5573
ymi	-5574
yse	-5575
zif	-5576
zir	-5577
zug	-5578
ëra	-5579
ërë	-5580
ötz	-5581
▁3,	-5582
▁4%	-5583
▁45	-5584
▁69	-5585
▁8%	-5586
▁ag	-5587
▁bo	-5588
▁dë	-5589
▁il	-5590
▁mm	-5591
▁sm	-5592
▁zi	-5593
▁äl	-5594
-27)	-5595
-32)	-5596
001:	-5597
2010	-5598
ance	-5599
anpp	-5600
arde	-5601
aria	-5602
atet	-5603
auen	-5604
auer	-5605
beug	-5606
deri	-5607
entw	-5608
erit	-5609
fang	-5610
fass	-5611
gene	-5612
hemb	-5613
htës	-5614
ical	-5615
ight	-5616
ikal	-5617
iken	-5618
ikut	-5619
ilfe	-5620
ilom	-5621
immt	-5622
inen	-5623
ions	-5624
irat	-5625
irin	-5626
itiv	-5627
jave	-5628
jëve	-5629
kton	-5630
llov	-5631
loat	-5632
mitt	-5633
qyrt	-5634
renn	-5635
ribu	-5636
rimi	-5637
rojë	-5638
sein	-5639
shtu	-5640
spar	-5641
steh	-5642
ubst	-5643
uesi	-5644
utje	-5645
vepr	-5646
west	-5647
wälz	-5648
wärt	-5649
ügen	-5650
ützt	-5651
▁(14	-5652
▁(20	-5653
▁(6)	-5654
▁(9)	-5655
▁20.	-5656
▁21.	-5657
▁25%	-5658
▁40%	-5659
▁afr	-5660
▁agj	-5661
▁amt	-5662
▁ass	-5663
▁ast	-5664
▁bef	-5665
▁dmc	-5666
▁dru	-5667
▁dyn	-5668
▁era	-5669
▁etj	-5670
▁fas	-5671
▁feh	-5672
▁fen	-5673
▁hoh	-5674
▁hum	-5675
▁int	-5676
▁kam	-5677
▁kol	-5678
▁krä	-5679
▁lag	-5680
▁lej	-5681
▁lit	-5682
▁lum	-5683
▁mot	-5684
▁män	-5685
▁pag	-5686
▁pen	-5687
▁prä	-5688
▁rur	-5689
▁tek	-5690
▁tox	-5691
▁vaj	-5692
▁vëm	-5693
▁vën	-5694
▁wfd	-5695
▁zyp	-5696
▁übr	-5697
aleve	-5698
andem	-5699
anten	-5700
apper	-5701
arien	-5702
askul	-5703
ausch	-5704
besch	-5705
chsel	-5706
enien	-5707
entur	-5708
enzin	-5709
erenz	-5710
ferik	-5711
fluor	-5712
funkt	-5713
gjika	-5714
greif	-5715
grids	-5716
hjeve	-5717
ifike	-5718
initi	-5719
ioxid	-5720
itekt	-5721
izeit	-5722
jetet	-5723
krank	-5724
kuraj	-5725
kämpf	-5726
lings	-5727
mäßig	-5728
nance	-5729
netze	-5730
ortal	-5731
pesha	-5732
ption	-5733
reach	-5734
rände	-5735
schlä	-5736
schäd	-5737
seits	-5738
seuch	-5739
sorge	-5740
splät	-5741
tarkt	-5742
typen	-5743
ukses	-5744
ukset	-5745
ullta	-5746
uropa	-5747
uthje	-5748
zeigt	-5749
ësitë	-5750
ësuar	-5751
ücken	-5752
▁(2).	-5753
▁(29)	-5754
▁(36)	-5755
▁(4).	-5756
▁1900	-5757
▁1960	-5758
▁2004	-5759
▁2100	-5760
▁aner	-5761
▁anst	-5762
▁asaj	-5763
▁ausm	-5764
▁bein	-5765
▁dann	-5766
▁deta	-5767
▁dram	-5768
▁erës	-5769
▁fall	-5770
▁frei	-5771
▁gele	-5772
▁gere	-5773
▁gute	-5774
▁hung	-5775
▁häuf	-5776
▁jede	-5777
▁jüng	-5778
▁kard	-5779
▁klas	-5780
▁klär	-5781
▁koha	-5782
▁kohe	-5783
▁kual	-5784
▁larg	-5785
▁lart	-5786
▁laut	-5787
▁lett	-5788
▁lirë	-5789
▁länd	-5790
▁läng	-5791
▁maks	-5792
▁merr	-5793
▁mish	-5794
▁naft	-5795
▁netz	-5796
▁ngre	-5797
▁oben	-5798
▁sens	-5799
▁shih	-5800
▁sink	-5801
▁situ	-5802
▁sken	-5803
▁star	-5804
▁term	-5805
▁tymi	-5806
▁ulje	-5807
▁varg	-5808
▁vari	-5809
▁vëll	-5810
▁wais	-5811
▁will	-5812
▁çojë	-5813
annten	-5814
aspekt	-5815
ergjia	-5816
ernähr	-5817
findet	-5818
fläche	-5819
gelöst	-5820
gesetz	-5821
gütern	-5822
hebung	-5823
hungen	-5824
ienste	-5825
igungs	-5826
ildung	-5827
lassen	-5828
lungen	-5829
menaxh	-5830
orcion	-5831
përfit	-5832
quelle	-5833
schmel	-5834
sektor	-5835
senken	-5836
sätzen	-5837
tragen	-5838
uktura	-5839
ustern	-5840
weisen	-5841
werden	-5842
wiesen	-5843
zirkul	-5844
▁(21).	-5845
▁(27).	-5846
▁(39).	-5847
▁2006.	-5848
▁2008,	-5849
▁2009/	-5850
▁2010.	-5851
▁arrin	-5852
▁arsye	-5853
▁ashtu	-5854
▁avanc	-5855
▁benöt	-5856
▁betre	-5857
▁bjerë	-5858
▁dafür	-5859
▁dimër	-5860
▁dürre	-5861
▁etwas	-5862
▁fortë	-5863
▁frage	-5864
▁frühw	-5865
▁geben	-5866
▁geist	-5867
▁genau	-5868
▁grupp	-5869
▁hapur	-5870
▁hohen	-5871
▁hängt	-5872
▁ihren	-5873
▁ihres	-5874
▁inici	-5875
▁invas	-5876
▁jugos	-5877
▁kalon	-5878
▁kapaz	-5879
▁knapp	-5880
▁kohën	-5881
▁kohët	-5882
▁konkr	-5883
▁konst	-5884
▁kyoto	-5885
▁künst	-5886
▁laufe	-5887
▁lente	-5888
▁mbarë	-5889
▁mikro	-5890
▁minus	-5891
▁misch	-5892
▁netto	-5893
▁neues	-5894
▁pabar	-5895
▁plumb	-5896
▁plötz	-5897
▁prekë	-5898
▁punët	-5899
▁reach	-5900
▁rrënj	-5901
▁secil	-5902
▁setzt	-5903
▁sllov	-5904
▁sotme	-5905
▁stell	-5906
▁stieg	-5907
▁super	-5908
▁supoz	-5909
▁synon	-5910
▁thema	-5911
▁thotë	-5912
▁tokën	-5913
▁trägt	-5914
▁tutje	-5915
▁tërhe	-5916
▁urspr	-5917
▁valët	-5918
▁vijnë	-5919
▁wären	-5920
▁years	-5921
▁zakon	-5922
▁ziels	-5923
▁zjarr	-5924
▁zonës	-5925
▁zweit	-5926
absicht	-5927
ansätze	-5928
energie	-5929
entwick	-5930
erseits	-5931
essment	-5932
findung	-5933
glichen	-5934
hältnis	-5935
instrum	-5936
itution	-5937
içiente	-5938
lungsab	-5939
metalle	-5940
ologjia	-5941
ontroll	-5942
prochen	-5943
rregull	-5944
shmëria	-5945
systeme	-5946
ufitare	-5947
ungsver	-5948
▁2007).	-5949
▁aftësi	-5950
▁aktual	-5951
▁akujve	-5952
▁anders	-5953
▁arsyet	-5954
▁atribu	-5955
▁aufgeb	-5956
▁ausger	-5957
▁barrën	-5958
▁benzin	-5959
▁beteil	-5960
▁bilanz	-5961
▁bimëve	-5962
▁cilësi	-5963
▁denken	-5964
▁dhjetë	-5965
▁dispon	-5966
▁divers	-5967
▁diverz	-5968
▁djegia	-5969
▁dëmeve	-5970
▁erfahr	-5971
▁ersatz	-5972
▁extens	-5973
▁finden	-5974
▁formen	-5975
▁franca	-5976
▁frauen	-5977
▁frucht	-5978
▁fushat	-5979
▁geburt	-5980
▁greqia	-5981
▁größen	-5982
▁harmon	-5983
▁indien	-5984
▁italia	-5985
▁jetuar	-5986
▁kafshë	-5987
▁karbur	-5988
▁katërt	-5989
▁kostos	-5990
▁kritik	-5991
▁kräfte	-5992
▁kundër	-5993
▁kurriz	-5994
▁lehtës	-5995
▁lumore	-5996
▁marine	-5997
▁marrin	-5998
▁medium	-5999
▁mikrom	-6000
▁moshës	-6001
▁männer	-6002
▁nanote	-6003
▁nehmen	-6004
▁ngjesh	-6005
▁nëntok	-6006
▁paguan	-6007
▁paktën	-6008
▁pasqyr	-6009
▁pasura	-6010
▁pjesët	-6011
▁populs	-6012
▁privat	-6013
▁promov	-6014
▁përjet	-6015
▁përpun	-6016
▁përsër	-6017
▁rajoni	-6018
▁realiz	-6019
▁sasinë	-6020
▁schmel	-6021
▁schnee	-6022
▁seiner	-6023
▁shkrir	-6024
▁spanja	-6025
▁stelle	-6026
▁stimul	-6027
▁sukses	-6028
▁tepërt	-6029
▁tjerët	-6030
▁tregut	-6031
▁ujitje	-6032
▁umwälz	-6033
▁ungarn	-6034
▁varfra	-6035
▁vjetra	-6036
▁vëmend	-6037
▁wahren	-6038
▁wirken	-6039
▁würden	-6040
▁zbutje	-6041
▁zgjidh	-6042
▁zhurma	-6043
▁zugäng	-6044
▁zypern	-6045
▁ältere	-6046
▁ökonom	-6047
abilität	-6048
aktionen	-6049
alizuara	-6050
aussagen	-6051
bereiche	-6052
ifikimin	-6053
industri	-6054
kontroll	-6055
merkmale	-6056
pflanzen	-6057
shfrytëz	-6058
ssysteme	-6059
verkehrs	-6060
vielfalt	-6061
zeichnis	-6062
zenarien	-6063
zusammen	-6064
▁adreson	-6065
▁akullit	-6066
▁ambicia	-6067
▁analyse	-6068
▁anreize	-6069
▁antarkt	-6070
▁arritja	-6071
▁bedroht	-6072
▁bekannt	-6073
▁beträgt	-6074
▁caktuar	-6075
▁debatte	-6076
▁diesbez	-6077
▁diskuss	-6078
▁drittel	-6079
▁dynamik	-6080
▁eingere	-6081
▁einiger	-6082
▁element	-6083
▁entwäss	-6084
▁erfolgt	-6085
▁estland	-6086
▁estonia	-6087
▁flukset	-6088
▁gemisch	-6089
▁genutzt	-6090
▁gezeigt	-6091
▁größere	-6092
▁handeln	-6093
▁hierfür	-6094
▁höheren	-6095
▁inkuraj	-6096
▁interes	-6097
▁kafshët	-6098
▁karboni	-6099
▁knapper	-6100
▁kombeve	-6101
▁komente	-6102
▁kompens	-6103
▁komunik	-6104
▁leisten	-6105
▁lindore	-6106
▁litauen	-6107
▁lokalen	-6108
▁machten	-6109
▁marinen	-6110
▁metalle	-6111
▁natyrën	-6112
▁ndikimi	-6113
▁ndërhyr	-6114
▁ndërvar	-6115
▁nevojat	-6116
▁nxitura	-6117
▁parimet	-6118
▁pashemb	-6119
▁peshqve	-6120
▁prekura	-6121
▁private	-6122
▁publike	-6123
▁përkund	-6124
▁qytetet	-6125
▁rreziku	-6126
▁rrjedha	-6127
▁ruajtur	-6128
▁rumania	-6129
▁saubere	-6130
▁schluss	-6131
▁serioze	-6132
▁shekull	-6133
▁shkojnë	-6134
▁sichern	-6135
▁staaten	-6136
▁studien	-6137
▁tatsäch	-6138
▁thekson	-6139
▁urbaniz	-6140
▁vazhdim	-6141
▁versuch	-6142
▁veterin	-6143
▁viertel	-6144
▁vorbeug	-6145
▁vorhand	-6146
▁vorläuf	-6147
▁wechsel	-6148
▁wohnbau	-6149
▁zbatuar	-6150
▁zentral	-6151
▁zhvillo	-6152
▁zugrund	-6153
assnahmen	-6154
emperatur	-6155
ertifikat	-6156
ffiziente	-6157
hinderung	-6158
indikator	-6159
overnance	-6160
ssektoren	-6161
ubstanzen	-6162
verunrein	-6163
xposition	-6164
▁absolutë	-6165
▁adaptimi	-6166
▁adekuate	-6167
▁anstiegs	-6168
▁ardhshëm	-6169
▁ardhurat	-6170
▁argument	-6171
▁ausdruck	-6172
▁bedeutet	-6173
▁befinden	-6174
▁beiträge	-6175
▁belgjika	-6176
▁beobacht	-6177
▁besseres	-6178
▁beträcht	-6179
▁bewertet	-6180
▁bewirken	-6181
▁direktem	-6182
▁efekteve	-6183
▁efiçient	-6184
▁eingesch	-6185
▁eksploat	-6186
▁erozioni	-6187
▁erstellt	-6188
▁erwartet	-6189
▁erzielen	-6190
▁feedback	-6191
▁finlanda	-6192
▁fossiler	-6193
▁freizeit	-6194
▁funktion	-6195
▁fuqishme	-6196
▁gefunden	-6197
▁größeren	-6198
▁grünland	-6199
▁hapësira	-6200
▁kimikate	-6201
▁kombinim	-6202
▁kombëtar	-6203
▁komplexe	-6204
▁konventa	-6205
▁kopenhag	-6206
▁kërkohen	-6207
▁kërkojnë	-6208
▁landnutz	-6209
▁lettland	-6210
▁menaxhim	-6211
▁mesazhet	-6212
▁mungesës	-6213
▁ndihmuar	-6214
▁ndërvepr	-6215
▁ngrohjes	-6216
▁oqeaneve	-6217
▁padëshir	-6218
▁periudhe	-6219
▁periudhë	-6220
▁personen	-6221
▁planeten	-6222
▁prodhime	-6223
▁përfaqës	-6224
▁përgjigj	-6225
▁përparim	-6226
▁raportet	-6227
▁reshjeve	-6228
▁rëndomtë	-6229
▁sanitäre	-6230
▁schaffen	-6231
▁sektoren	-6232
▁sezonale	-6233
▁shkencor	-6234
▁shumicën	-6235
▁sicherer	-6236
▁sigurimi	-6237
▁sjelljen	-6238
▁specieve	-6239
▁stimulim	-6240
▁tendencë	-6241
▁transpar	-6242
▁trendëve	-6243
▁ungleich	-6244
▁varfërim	-6245
▁vdekjeve	-6246
▁vendosja	-6247
▁verbreit	-6248
▁verbrenn	-6249
▁verknüpf	-6250
▁vielfach	-6251
▁vorsorge	-6252
▁zbatimit	-6253
▁zgjedhur	-6254
▁zgjerimi	-6255
▁übertrag	-6256
bedeckungs	-6257
funktionen	-6258
otoxizität	-6259
ökosysteme	-6260
▁ambiental	-6261
▁ardhurave	-6262
▁ausgelöst	-6263
▁beispiell	-6264
▁bestimmte	-6265
▁dramatike	-6266
▁dryshimet	-6267
▁dyoksidit	-6268
▁effizient	-6269
▁efiçiente	-6270
▁emetimeve	-6271
▁entstehen	-6272
▁erfordern	-6273
▁förderung	-6274
▁geringere	-6275
▁habitatet	-6276
▁informata	-6277
▁katastrof	-6278
▁komplexen	-6279
▁konsumuar	-6280
▁kufizimet	-6281
▁kërkesave	-6282
▁ligatinat	-6283
▁luftschad	-6284
▁mbretëria	-6285
▁menaxhuar	-6286
▁mesatares	-6287
▁minierave	-6288
▁mobilität	-6289
▁möglichen	-6290
▁ngjarjeve	-6291
▁notwendig	-6292
▁nënvlerës	-6293
▁peshkimin	-6294
▁popullsia	-6295
▁prodhojmë	-6296
▁prodhojnë	-6297
▁progresit	-6298
▁propozuar	-6299
▁protokoll	-6300
▁punueshme	-6301
▁përcakton	-6302
▁përhapjen	-6303
▁përmbajnë	-6304
▁përmbledh	-6305
▁përputhje	-6306
▁përqindje	-6307
▁qytetarët	-6308
▁relevante	-6309
▁schlechte	-6310
▁schlüssel	-6311
▁schneller	-6312
▁shkaktojë	-6313
▁shpejtësi	-6314
▁shtëpiake	-6315
▁sigurojnë	-6316
▁sipërfaqe	-6317
▁slowenien	-6318
▁specifike	-6319
▁standarde	-6320
▁sëmundjes	-6321
▁teilweise	-6322
▁tierseuch	-6323
▁trajtohen	-6324
▁varfërisë	-6325
▁verändert	-6326
▁vorteilen	-6327
▁zvogëlimi	-6328
▁östlichen	-6329
entwicklung	-6330
gesundheits	-6331
industriale	-6332
instrumente	-6333
schätzungen	-6334
stoffmangel	-6335
ungsfindung	-6336
zirkulation	-6337
überschreit	-6338
▁assessment	-6339
▁begrenzung	-6340
▁chemischen	-6341
▁chemischer	-6342
▁einbezogen	-6343
▁einerseits	-6344
▁einführung	-6345
▁entspricht	-6346
▁entwickelt	-6347
▁festlegung	-6348
▁haushalten	-6349
▁hidrocentr	-6350
▁indirekten	-6351
▁innovation	-6352
▁inovacione	-6353
▁kommunalen	-6354
▁komponente	-6355
▁krankheits	-6356
▁kërcënimet	-6357
▁ligatinave	-6358
▁llogaritur	-6359
▁ländlichen	-6360
▁menschheit	-6361
▁mineralien	-6362
▁mundësojnë	-6363
▁papërshtat	-6364
▁permafrost	-6365
▁perëndimor	-6366
▁plötzliche	-6367
▁popullatat	-6368
▁praktikave	-6369
▁prodhimtar	-6370
▁pylltarisë	-6371
▁reduktohet	-6372
▁reduzierte	-6373
▁refleksion	-6374
▁regelungen	-6375
▁richtlinie	-6376
▁rohstoffen	-6377
▁shkaktuara	-6378
▁shkëmbimet	-6379
▁shpërndarë	-6380
▁sipërfaqës	-6381
▁steigender	-6382
▁strategien	-6383
▁strategjia	-6384
▁strukturën	-6385
▁subvencion	-6386
▁treibenden	-6387
▁umwandlung	-6388
▁umweltgere	-6389
▁verbreitet	-6390
▁vernetzung	-6391
▁vlerësimit	-6392
▁vlerësuara	-6393
▁wachsenden	-6394
▁weltweiter	-6395
▁übermäßige	-6396
▁übersteigt	-6397
durchschnitt	-6398
landschaften	-6399
ärmbelastung	-6400
▁arbeitsplät	-6401
▁ausgegangen	-6402
▁ausreichend	-6403
▁bashkëpunim	-6404
▁beschrieben	-6405
▁bewässerung	-6406
▁derzeitigen	-6407
▁entsprechen	-6408
▁erfolgreich	-6409
▁grundwasser	-6410
▁hingewiesen	-6411
▁intensiteti	-6412
▁investition	-6413
▁komunitetit	-6414
▁konkurruese	-6415
▁lebensstils	-6416
▁naturschutz	-6417
▁nëntokësore	-6418
▁organischen	-6419
▁pjesëmarrja	-6420
▁prozentsatz	-6421
▁përfshirjen	-6422
▁përmirësimi	-6423
▁qarkullimit	-6424
▁regierungen	-6425
▁relativisht	-6426
▁rregullorja	-6427
▁schadstoffe	-6428
▁schifffahrt	-6429
▁shfrytëzuar	-6430
▁shkëmbimeve	-6431
▁shpërndarja	-6432
▁siedlungsab	-6433
▁strategjitë	-6434
▁teknologjik	-6435
▁territorial	-6436
▁unbeabsicht	-6437
▁unterdessen	-6438
▁unterstützt	-6439
▁verbreitung	-6440
▁vereinigtes	-6441
▁verursacher	-6442
▁verwendeten	-6443
▁vorliegende	-6444
▁wesentliche	-6445
▁wirksamkeit	-6446
▁ackerflächen	-6447
▁agrarpolitik	-6448
▁andererseits	-6449
▁artensterben	-6450
▁bodenerosion	-6451
▁eingerechnet	-6452
▁eutrofikimit	-6453
▁grundlegende	-6454
▁hinterlassen	-6455
▁identifikuar	-6456
▁indikatorëve	-6457
▁instrumentet	-6458
▁integrierter	-6459
▁integrierung	-6460
▁kernaussagen	-6461
▁konkurrencës	-6462
▁kontribuojnë	-6463
▁konzentriert	-6464
▁lebensräumen	-6465
▁mirëmbajtjen	-6466
▁ndërkufitare	-6467
▁parashikimet	-6468
▁pashembullta	-6469
▁potenziellen	-6470
▁shëndetësisë	-6471
▁teknologjisë	-6472
▁teknologjive	-6473
▁territoriale	-6474
▁transformimi	-6475
▁tschechische	-6476
▁unsicherheit	-6477
▁veprimtaritë	-6478
▁verschiebung	-6479
▁verzeichnete	-6480
▁wasserbedarf	-6481
▁zëvendësimin	-6482
▁überfischung	-6483
▁abflussmengen	-6484
▁biodiverzitet	-6485
▁cenueshmërinë	-6486
▁einrichtungen	-6487
▁elasticitetit	-6488
▁lebensmitteln	-6489
▁parashikimeve	-6490
▁përqendrimeve	-6491
▁rückkopplungs	-6492
konzentrationen	-6493
▁energiequellen	-6494
▁kompleksitetit	-6495
▁konsiderueshëm	-6496
▁steuerreformen	-6497
▁terrestrischen	-6498
▁umweltfaktoren	-6499
▁umweltprobleme	-6500
▁verantwortungs	-6501
▁wasserqualität	-6502
▁überschreitung	-6503
▁biokraftstoffen	-6504
▁industrieländer	-6505
▁internationalen	-6506
▁karakteristikat	-6507
▁mitgliedstaaten	-6508
▁nahrungsmitteln	-6509
)(	-6510
-,	-6511
/3	-6512
14	-6513
17	-6514
42	-6515
8)	-6516
85	-6517
99	-6518
?)	-6519
bt	-6520
ct	-6521
eq	-6522
fu	-6523
gs	-6524
hy	-6525
kb	-6526
kë	-6527
mm	-6528
oe	-6529
rd	-6530
yk	-6531
ße	-6532
”.	-6533
▁”	-6534
2),	-6535
2);	-6536
2.5	-6537
235	-6538
5),	-6539
aat	-6540
adt	-6541
arm	-6542
eks	-6543
eli	-6544
els	-6545
enj	-6546
era	-6547
eta	-6548
etc	-6549
fao	-6550
fcc	-6551
fcm	-6552
füg	-6553
gag	-6554
gji	-6555
ibl	-6556
iko	-6557
int	-6558
iov	-6559
jak	-6560
jat	-6561
jëh	-6562
kar	-6563
kei	-6564
kth	-6565
lös	-6566
mal	-6567
mau	-6568
med	-6569
old	-6570
orb	-6571
ott	-6572
pol	-6573
pre	-6574
pte	-6575
put	-6576
quf	-6577
ron	-6578
rug	-6579
sto	-6580
tut	-6581
ulo	-6582
une	-6583
urë	-6584
use	-6585
ven	-6586
wfd	-6587
yle	-6588
zol	-6589
ärö	-6590
örd	-6591
▁(„	-6592
▁2)	-6593
▁34	-6594
▁5%	-6595
▁6,	-6596
▁60	-6597
▁88	-6598
▁eg	-6599
faq	-6600
win	-6601
▁26	-6602
▁3%	-6603
▁ia	-6604
▁ll	-6605
▁om	-6606
/200	-6607
2009	-6608
abar	-6609
abit	-6610
ahls	-6611
ammt	-6612
anal	-6613
anit	-6614
apac	-6615
ardh	-6616
ards	-6617
areg	-6618
arit	-6619
arët	-6620
atin	-6621
atën	-6622
aust	-6623
azhe	-6624
bare	-6625
baut	-6626
bene	-6627
bind	-6628
cher	-6629
cken	-6630
eksi	-6631
emra	-6632
enca	-6633
erja	-6634
esch	-6635
esse	-6636
etat	-6637
etit	-6638
fccc	-6639
ferë	-6640
forc	-6641
fter	-6642
fuhr	-6643
gave	-6644
gend	-6645
gerä	-6646
gjës	-6647
grün	-6648
gäng	-6649
idel	-6650
idet	-6651
ifor	-6652
imiz	-6653
inxh	-6654
irëz	-6655
ista	-6656
itje	-6657
ival	-6658
ivil	-6659
jesh	-6660
jete	-6661
kenn	-6662
kluz	-6663
ksag	-6664
kues	-6665
kürz	-6666
lind	-6667
lärm	-6668
läss	-6669
mbet	-6670
mehr	-6671
mess	-6672
morf	-6673
nitë	-6674
omat	-6675
onte	-6676
osph	-6677
oten	-6678
qisë	-6679
rang	-6680
resp	-6681
reve	-6682
rrit	-6683
schw	-6684
seis	-6685
shën	-6686
span	-6687
such	-6688
sumi	-6689
tabl	-6690
ufen	-6691
uier	-6692
ultz	-6693
urta	-6694
ushe	-6695
utin	-6696
voll	-6697
vorg	-6698
wahr	-6699
ecd	-6700
yrë	-6701
edon	-6702
feld	-6703
wrrl	-6704
ypur	-6705
zahl	-6706
älte	-6707
ëshm	-6708
ëzhg	-6709
ötig	-6710
ücht	-6711
▁(10	-6712
▁(23	-6713
▁(?)	-6714
▁0,5	-6715
▁0,7	-6716
▁1,7	-6717
▁17%	-6718
▁2.5	-6719
▁500	-6720
▁6),	-6721
▁75%	-6722
▁ajr	-6723
▁alp	-6724
▁amm	-6725
▁ash	-6726
▁aty	-6727
▁cik	-6728
▁dat	-6729
▁ded	-6730
▁din	-6731
▁dok	-6732
▁duh	-6733
▁ebd	-6734
▁eea	-6735
▁emc	-6736
▁enp	-6737
▁erl	-6738
▁fib	-6739
▁fry	-6740
▁fäh	-6741
▁hor	-6742
▁jep	-6743
▁kut	-6744
▁let	-6745
▁lim	-6746
▁mak	-6747
▁maz	-6748
▁okb	-6749
▁pal	-6750
▁psy	-6751
▁rad	-6752
▁ros	-6753
▁see	-6754
▁sor	-6755
▁tür	-6756
▁usd	-6757
▁vij	-6758
▁viz	-6759
▁çoj	-6760
-2008	-6761
.....	-6762
affen	-6763
alige	-6764
allen	-6765
altet	-6766
anitë	-6767
antet	-6768
aqeve	-6769
ashtë	-6770
atave	-6771
atien	-6772
atura	-6773
azhit	-6774
azive	-6775
bruch	-6776
böden	-6777
chlor	-6778
ction	-6779
dhenj	-6780
elekt	-6781
encia	-6782
encës	-6783
endes	-6784
ereig	-6785
esten	-6786
eteve	-6787
etter	-6788
feren	-6789
geord	-6790
hagen	-6791
ifest	-6792
immen	-6793
index	-6794
innov	-6795
isher	-6796
isjes	-6797
istik	-6798
istor	-6799
kw	-6800
li	-6801
equ	-6802
law	-6803
afër	-6804
tran	-6805
▁...	-6806
▁45%	-6807
▁95%	-6808
▁jen	-6809
▁pah	-6810
itäts	-6811
kette	-6812
lands	-6813
nahes	-6814
nicht	-6815
okrin	-6816
oniak	-6817
oprim	-6818
otoks	-6819
prior	-6820
qever	-6821
racht	-6822
reben	-6823
reduz	-6824
reibt	-6825
retët	-6826
romer	-6827
rreth	-6828
ränkt	-6829
speri	-6830
splan	-6831
srate	-6832
träge	-6833
ujorë	-6834
unece	-6835
unken	-6836
urëve	-6837
vësht	-6838
werbe	-6839
werke	-6840
yllëz	-6841
zusch	-6842
ächst	-6843
änden	-6844
ärkte	-6845
ätigt	-6846
ätzen	-6847
ënjoh	-6848
▁(14)	-6849
▁(24)	-6850
▁(47)	-6851
▁(5).	-6852
▁(56)	-6853
▁(62)	-6854
▁1995	-6855
▁agro	-6856
▁amaz	-6857
▁ausb	-6858
▁avia	-6859
▁bade	-6860
▁bore	-6861
▁bëjë	-6862
▁bëra	-6863
▁dytë	-6864
▁dëme	-6865
▁egra	-6866
▁ehem	-6867
▁eing	-6868
▁fert	-6869
▁fill	-6870
▁fluk	-6871
▁färö	-6872
▁gewä	-6873
▁gfcm	-6874
▁graf	-6875
▁gren	-6876
▁hart	-6877
▁hohe	-6878
▁isol	-6879
▁izol	-6880
▁kein	-6881
▁kina	-6882
▁kopf	-6883
▁kriz	-6884
▁kënd	-6885
▁leit	-6886
▁life	-6887
▁litu	-6888
▁luan	-6889
▁meth	-6890
▁mith	-6891
▁mold	-6892
▁nerv	-6893
▁neun	-6894
▁nörd	-6895
▁oecd	-6896
▁oste	-6897
▁pash	-6898
▁phyt	-6899
▁pika	-6900
▁pron	-6901
▁qend	-6902
▁qind	-6903
▁qënd	-6904
▁raub	-6905
▁rish	-6906
▁russ	-6907
▁sais	-6908
▁sesa	-6909
▁shba	-6910
▁shif	-6911
▁spür	-6912
▁squf	-6913
▁sërë	-6914
▁tats	-6915
▁tief	-6916
▁trag	-6917
▁ujin	-6918
▁uner	-6919
▁vart	-6920
▁verz	-6921
▁verë	-6922
▁verö	-6923
▁vlen	-6924
▁vëna	-6925
▁wand	-6926
▁wege	-6927
▁weil	-6928
▁weiß	-6929
▁werd	-6930
▁west	-6931
▁zonë	-6932
▁zënë	-6933
abartë	-6934
abhäng	-6935
acioni	-6936
ansatz	-6937
ardhje	-6938
belung	-6939
benden	-6940
brände	-6941
corine	-6942
decken	-6943
derung	-6944
einden	-6945
ereign	-6946
europä	-6947
ferike	-6948
flüsse	-6949
fällig	-6950
führen	-6951
gebiet	-6952
gnosen	-6953
graben	-6954
grenze	-6955
htajni	-6956
iegeln	-6957
iegelt	-6958
imalen	-6959
ischem	-6960
jëherë	-6961
kompon	-6962
kuestr	-6963
kultur	-6964
lebens	-6965
leicht	-6966
limate	-6967
linien	-6968
läufig	-6969
lücken	-6970
medien	-6971
najave	-6972
nissen	-6973
nommen	-6974
omosdo	-6975
onalen	-6976
opolit	-6977
orient	-6978
perënd	-6979
rechts	-6980
redukt	-6981
regern	-6982
riffen	-6983
risiko	-6984
rophal	-6985
schrän	-6986
schuss	-6987
stelle	-6988
termin	-6989
werten	-6990
zeugen	-6991
zielen	-6992
ësimit	-6993
ördert	-6994
▁(11).	-6995
▁(14).	-6996
▁(15),	-6997
▁(28).	-6998
▁(46).	-6999
▁(60).	-7000
▁2000)	-7001
▁2002.	-7002
▁2003,	-7003
▁2005,	-7004
▁2006,	-7005
▁2007.	-7006
▁2009,	-7007
▁2009.	-7008
▁2020,	-7009
▁2030,	-7010
▁ajrin	-7011
▁aneig	-7012
▁ankur	-7013
▁armen	-7014
▁asien	-7015
▁aufre	-7016
▁augen	-7017
▁bazës	-7018
▁biska	-7019
▁dagew	-7020
▁dauer	-7021
▁dheun	-7022
▁dhjet	-7023
▁ditës	-7024
▁dring	-7025
▁drith	-7026
▁duket	-7027
▁dëshm	-7028
▁ekoin	-7029
▁engag	-7030
▁ernst	-7031
▁esenc	-7032
▁etabl	-7033
▁exist	-7034
▁faroe	-7035
▁fauna	-7036
▁femra	-7037
▁figur	-7038
▁final	-7039
▁forca	-7040
▁forta	-7041
▁fushe	-7042
▁fushë	-7043
▁genug	-7044
▁gjasa	-7045
▁habit	-7046
▁hanpp	-7047
▁hapat	-7048
▁impon	-7049
▁japan	-7050
▁jeden	-7051
▁jener	-7052
▁jetik	-7053
▁kilom	-7054
▁klein	-7055
▁kohez	-7056
▁komer	-7057
▁kosto	-7058
▁kumul	-7059
▁kälte	-7060
▁lange	-7061
▁linie	-7062
▁lista	-7063
▁margj	-7064
▁matur	-7065
▁meist	-7066
▁mëtut	-7067
▁night	-7068
▁nimmt	-7069
▁normë	-7070
▁nëntë	-7071
▁nötig	-7072
▁parak	-7073
▁parap	-7074
▁pasqy	-7075
▁pikën	-7076
▁plani	-7077
▁rates	-7078
▁rauch	-7079
▁refer	-7080
▁regen	-7081
▁rikth	-7082
▁rrall	-7083
▁rritë	-7084
▁ruhet	-7085
▁rënia	-7086
▁sauer	-7087
▁sehen	-7088
▁sfidë	-7089
▁sieht	-7090
▁sinne	-7091
▁staat	-7092
▁stadt	-7093
▁stinë	-7094
▁streh	-7095
▁stren	-7096
▁tabel	-7097
▁trakt	-7098
▁uljes	-7099
▁ungen	-7100
▁vendi	-7101
▁vepro	-7102
▁verab	-7103
▁vëzhg	-7104
▁wegen	-7105
▁werte	-7106
▁wirkt	-7107
▁wärme	-7108
▁zgjat	-7109
▁zielt	-7110
▁zinxh	-7111
▁zivil	-7112
▁zweif	-7113
acionit	-7114
agentur	-7115
akteure	-7116
akultur	-7117
bekämpf	-7118
bindung	-7119
blieben	-7120
bringen	-7121
edonien	-7122
einheit	-7123
endahls	-7124
endlich	-7125
enlanda	-7126
etësimi	-7127
gesehen	-7128
handelt	-7129
hershme	-7130
iciteti	-7131
kategor	-7132
kräften	-7133
ksagung	-7134
leitung	-7135
lichung	-7136
lineare	-7137
miliard	-7138
ografik	-7139
osferik	-7140
ottland	-7141
printit	-7142
prozess	-7143
respond	-7144
schultz	-7145
shtatur	-7146
steiger	-7147
vention	-7148
wärmung	-7149
zeichen	-7150
zeitige	-7151
zugehen	-7152
üchtige	-7153
▁abkürz	-7154
▁altern	-7155
▁alters	-7156
▁analys	-7157
▁asgjës	-7158
▁beacht	-7159
▁besser	-7160
▁betrug	-7161
▁bietet	-7162
▁bimësi	-7163
▁binnen	-7164
▁bisher	-7165
▁ciklet	-7166
▁deponi	-7167
▁dessen	-7168
▁deteve	-7169
▁dramat	-7170
▁drejta	-7171
▁drurit	-7172
▁eigent	-7173
▁erhalt	-7174
▁erster	-7175
▁fondin	-7176
▁forder	-7177
▁fushën	-7178
▁futjen	-7179
▁gesetz	-7180
▁gjurmë	-7181
▁grupet	-7182
▁größte	-7183
▁halten	-7184
▁histor	-7185
▁hygien	-7186
▁höchst	-7187
▁ilustr	-7188
▁jetike	-7189
▁konnte	-7190
▁koston	-7191
▁kripëz	-7192
▁kultiv	-7193
▁kuptim	-7194
▁kurzem	-7195
▁kushte	-7196
▁letzte	-7197
▁lindja	-7198
▁luajnë	-7199
▁länger	-7200
▁maksim	-7201
▁matrix	-7202
▁mendor	-7203
▁naftës	-7204
▁ngjarë	-7205
▁ngurta	-7206
▁njëkoh	-7207
▁nënsht	-7208
▁ofruar	-7209
▁orient	-7210
▁pandem	-7211
▁parimi	-7212
▁pastra	-7213
▁penges	-7214
▁phosph	-7215
▁preise	-7216
▁pritur	-7217
▁përbën	-7218
▁përbër	-7219
▁përgat	-7220
▁përkoh	-7221
▁përshk	-7222
▁qasjet	-7223
▁realis	-7224
▁reshje	-7225
▁rurale	-7226
▁sasisë	-7227
▁secila	-7228
▁senken	-7229
▁serioz	-7230
▁shihen	-7231
▁shkaqe	-7232
▁shqyrt	-7233
▁shtuar	-7234
▁shtyrë	-7235
▁sigurt	-7236
▁sjellë	-7237
▁sofern	-7238
▁spezif	-7239
▁spielt	-7240
▁stammt	-7241
▁temper	-7242
▁türkei	-7243
▁unsich	-7244
▁vegjet	-7245
▁vendim	-7246
▁vendit	-7247
▁vollem	-7248
▁vorant	-7249
▁vorher	-7250
▁wiesen	-7251
▁wohnen	-7252
▁wächst	-7253
▁wüsten	-7254
▁zugute	-7255
▁çmimet	-7256
acionale	-7257
analysen	-7258
ansatzes	-7259
arnungen	-7260
askulare	-7261
bedingte	-7262
behebung	-7263
beziehen	-7264
biodiver	-7265
einträge	-7266
eitigung	-7267
ekonomik	-7268
erialien	-7269
fassungs	-7270
forcojnë	-7271
fältigen	-7272
gangenen	-7273
gewichts	-7274
icitetin	-7275
isierten	-7276
kapitals	-7277
ksioneve	-7278
lawische	-7279
licheren	-7280
mangshme	-7281
ourismus	-7282
raktiken	-7283
richtung	-7284
shmërinë	-7285
smustern	-7286
stabelle	-7287
usstsein	-7288
vorgaben	-7289
wärtigen	-7290
▁abnahme	-7291
▁afrikës	-7292
▁aftësia	-7293
▁akteure	-7294
▁aktorët	-7295
▁analizë	-7296
▁anderer	-7297
▁anstatt	-7298
▁ardhmes	-7299
▁arrihen	-7300
▁arrijnë	-7301
▁basiert	-7302
▁bedingt	-7303
▁befasst	-7304
▁bezieht	-7305
▁biomasa	-7306
▁brishta	-7307
▁debatit	-7308
▁dekadës	-7309
▁dienste	-7310
▁domosdo	-7311
▁drurëve	-7312
▁dëmtimi	-7313
▁dështim	-7314
▁efektiv	-7315
▁einfuhr	-7316
▁einhalt	-7317
▁elektro	-7318
▁emetuar	-7319
▁ergänzt	-7320
▁erosion	-7321
▁flüssen	-7322
▁fushave	-7323
▁gesunde	-7324
▁gjysmën	-7325
▁grafisk	-7326
▁gründen	-7327
▁humbura	-7328
▁jashtme	-7329
▁kalimin	-7330
▁kardiov	-7331
▁konkluz	-7332
▁konnten	-7333
▁konsequ	-7334
▁konsums	-7335
▁kontakt	-7336
▁konzept	-7337
▁kuadrin	-7338
▁kullota	-7339
▁leistet	-7340
▁lejojnë	-7341
▁mallrat	-7342
▁materie	-7343
▁maßstab	-7344
▁mbulesa	-7345
▁messung	-7346
▁metodat	-7347
▁mungesë	-7348
▁mëdhenj	-7349
▁ndotëse	-7350
▁ndërkaq	-7351
▁negativ	-7352
▁ngritja	-7353
▁paraqet	-7354
▁partner	-7355
▁peshkim	-7356
▁positiv	-7357
▁pranver	-7358
▁prekurs	-7359
▁procesi	-7360
▁përafër	-7361
▁përkrah	-7362
▁përmend	-7363
▁përqend	-7364
▁qëndron	-7365
▁reichen	-7366
▁risikom	-7367
▁rreziqe	-7368
▁rrjetit	-7369
▁schafft	-7370
▁schmelz	-7371
▁schwach	-7372
▁senkung	-7373
▁shikuar	-7374
▁shkalle	-7375
▁shpejta	-7376
▁shtypur	-7377
▁sisteme	-7378
▁sjellin	-7379
▁sparten	-7380
▁stabile	-7381
▁stacion	-7382
▁stromer	-7383
▁synuara	-7384
▁totalit	-7385
▁trafiku	-7386
▁trajton	-7387
▁turizmi	-7388
▁vajrave	-7389
▁verdeut	-7390
▁vorange	-7391
▁vorigen	-7392
▁vorrang	-7393
▁wirkung	-7394
▁zbutëse	-7395
▁zhurmën	-7396
▁zjarret	-7397
▁zuwachs	-7398
▁übrigen	-7399
austausch	-7400
bedingter	-7401
ernährten	-7402
geführten	-7403
greifende	-7404
menaxhimi	-7405
nachfrage	-7406
ologische	-7407
oplankton	-7408
ovacionet	-7409
reichende	-7410
retëtirëz	-7411
schmelzen	-7412
setzungen	-7413
standards	-7414
transport	-7415
ueshmëria	-7416
▁........	-7417
▁abildung	-7418
▁acidifik	-7419
▁adresimi	-7420
▁aftësisë	-7421
▁aktuelle	-7422
▁ammoniak	-7423
▁analizat	-7424
▁angebots	-7425
▁arktikun	-7426
▁aufrecht	-7427
▁ausnahme	-7428
▁banorëve	-7429
▁belasten	-7430
▁betracht	-7431
▁beziehen	-7432
▁biokapac	-7433
▁bizneset	-7434
▁caktuara	-7435
▁deponimi	-7436
▁direkter	-7437
▁dobishme	-7438
▁dokument	-7439
▁dëmtimin	-7440
▁dëmtimit	-7441
▁einzelne	-7442
▁endokrin	-7443
▁energies	-7444
▁entgegen	-7445
▁erfolgte	-7446
▁erholung	-7447
▁europäer	-7448
▁fqinjëve	-7449
▁früherer	-7450
▁frühjahr	-7451
▁geringen	-7452
▁gesunken	-7453
▁grenland	-7454
▁grönländ	-7455
▁größerer	-7456
▁habitate	-7457
▁herkunft	-7458
▁hungaria	-7459
▁importit	-7460
▁infrastr	-7461
▁internet	-7462
▁invazive	-7463
▁isoliert	-7464
▁jährlich	-7465
▁kancerit	-7466
▁kapiteln	-7467
▁klimareg	-7468
▁komiteti	-7469
▁koncentr	-7470
▁krijojnë	-7471
▁kroatien	-7472
▁kthesave	-7473
▁kufitare	-7474
▁kundrejt	-7475
▁kërcënim	-7476
▁lituania	-7477
▁luftrein	-7478
▁lëvizjen	-7479
▁lösungen	-7480
▁manifest	-7481
▁mbrojtje	-7482
▁minerale	-7483
▁mirënjoh	-7484
▁mithilfe	-7485
▁mundshëm	-7486
▁mungesën	-7487
▁national	-7488
▁ndikimin	-7489
▁ndërtime	-7490
▁ngarkesa	-7491
▁ngritjen	-7492
▁nënujorë	-7493
▁nëpërmes	-7494
▁pajisjet	-7495
▁partikel	-7496
▁pasiguri	-7497
▁pellgjet	-7498
▁periudha	-7499
▁planetar	-7500
▁praktike	-7501
▁pritshme	-7502
▁privuara	-7503
▁procesin	-7504
▁përdoren	-7505
▁përdoret	-7506
▁përhapur	-7507
▁rajonale	-7508
▁regjimet	-7509
▁relevant	-7510
▁rezulton	-7511
▁rrjeteve	-7512
▁rückläuf	-7513
▁sauberem	-7514
▁sektorin	-7515
▁sekuestr	-7516
▁shekulli	-7517
▁shkëmbin	-7518
▁shoqëror	-7519
▁shpyllëz	-7520
▁shteteve	-7521
▁shtytëse	-7522
▁sinkende	-7523
▁sozialer	-7524
▁squfurit	-7525
▁studimet	-7526
▁stärkere	-7527
▁umgebung	-7528
▁untermau	-7529
▁ursprüng	-7530
▁variiert	-7531
▁varësinë	-7532
▁verfügen	-7533
▁verluste	-7534
▁verteilt	-7535
▁vielzahl	-7536
▁vorschlä	-7537
▁vorsicht	-7538
▁vëmendje	-7539
▁wiederum	-7540
▁zgjeruar	-7541
▁zhdukjes	-7542
▁zvogëloj	-7543
▁çrregull	-7544
allenriffe	-7545
ereignisse	-7546
ffizienten	-7547
grundlagen	-7548
ienstleist	-7549
initiative	-7550
istrierung	-7551
kategorien	-7552
kommission	-7553
sicherheit	-7554
strategien	-7555
strukturen	-7556
ungsmuster	-7557
▁absoluten	-7558
▁adaptimin	-7559
▁adaptuese	-7560
▁adresojnë	-7561
▁afatgjate	-7562
▁allgemein	-7563
▁ambicioze	-7564
▁analizuar	-7565
▁aneignung	-7566
▁anerkannt	-7567
▁ansteigen	-7568
▁anwendung	-7569
▁atmosferë	-7570
▁atmosphär	-7571
▁ausgebeut	-7572
▁ausmachen	-7573
▁bedeutend	-7574
▁behandelt	-7575
▁belastete	-7576
▁bestimmen	-7577
▁besueshme	-7578
▁cenueshme	-7579
▁dallimeve	-7580
▁demograph	-7581
▁diesbezüg	-7582
▁diskutuar	-7583
▁ehemalige	-7584
▁einschrän	-7585
▁eisschild	-7586
▁ekuilibri	-7587
▁entsprech	-7588
▁erfahrung	-7589
▁erfassung	-7590
▁erholungs	-7591
▁erzielten	-7592
▁flüchtige	-7593
▁fundament	-7594
▁fähigkeit	-7595
▁gefördert	-7596
▁genannten	-7597
▁genutzten	-7598
▁geschützt	-7599
▁impiantet	-7600
▁interesse	-7601
▁jahrzehnt	-7602
▁kipppunkt	-7603
▁kompanitë	-7604
▁kontinent	-7605
▁kopenhagë	-7606
▁kufizuara	-7607
▁këshillit	-7608
▁llogaritë	-7609
▁materiell	-7610
▁maximalen	-7611
▁mbrojtura	-7612
▁mesatarja	-7613
▁migration	-7614
▁moshuarit	-7615
▁mundësive	-7616
▁mundësuar	-7617
▁mëparshme	-7618
▁mëtutjesh	-7619
▁ndërrimet	-7620
▁nettoprim	-7621
▁nxjerrjes	-7622
▁nënkupton	-7623
▁osteuropa	-7624
▁pajisjeve	-7625
▁paraqitur	-7626
▁peizazhet	-7627
▁pellgjeve	-7628
▁periudhën	-7629
▁physische	-7630
▁populsisë	-7631
▁presionit	-7632
▁produktit	-7633
▁programme	-7634
▁progresin	-7635
▁prozessen	-7636
▁pylltaria	-7637
▁përballet	-7638
▁përmirëso	-7639
▁quantitat	-7640
▁raportimi	-7641
▁reagimeve	-7642
▁reflekton	-7643
▁reformave	-7644
▁regionale	-7645
▁regjimeve	-7646
▁regjionet	-7647
▁regulator	-7648
▁rezervuar	-7649
▁rezultate	-7650
▁richtigen	-7651
▁riciklimi	-7652
▁rregullat	-7653
▁sektorial	-7654
▁shkencore	-7655
▁shtytësit	-7656
▁stimulime	-7657
▁störungen	-7658
▁südlichen	-7659
▁tejkaluar	-7660
▁thelbësor	-7661
▁treguesit	-7662
▁treguesve	-7663
▁umweltbel	-7664
▁untersuch	-7665
▁varësisht	-7666
▁verfügung	-7667
▁verhalten	-7668
▁verknüpft	-7669
▁verlagert	-7670
▁verstehen	-7671
▁veröffent	-7672
▁vlerësime	-7673
▁vorkommen	-7674
▁wichtiger	-7675
▁wiederher	-7676
▁wohlstand	-7677
▁zentralen	-7678
▁zhvillime	-7679
▁übersicht	-7680
ereignissen	-7681
indikatoren	-7682
mechanismen	-7683
perëndimore	-7684
prioritäten	-7685
regulierung	-7686
stemperatur	-7687
ungszustand	-7688
▁allgemeine	-7689
▁angewiesen	-7690
▁atlantikut	-7691
▁aufrechter	-7692
▁ausbeutung	-7693
▁benachteil	-7694
▁beschreibt	-7695
▁bestimmten	-7696
▁bestimmter	-7697
▁bodennahes	-7698
▁danksagung	-7699
▁definicion	-7700
▁degradimin	-7701
▁degradimit	-7702
▁deutlicher	-7703
▁direktivën	-7704
▁diskutimet	-7705
▁entstehung	-7706
▁fqinjësinë	-7707
▁fqinjësisë	-7708
▁furnizimin	-7709
▁geringerem	-7710
▁gesamtheit	-7711
▁gjeografik	-7712
▁governance	-7713
▁implikimet	-7714
▁infektuese	-7715
▁kapaciteti	-7716
▁kipppunkte	-7717
▁komerciale	-7718
▁kompromiss	-7719
▁kontinuier	-7720
▁kontribuoj	-7721
▁kontrollin	-7722
▁konvencion	-7723
▁kopenhagen	-7724
▁korrespond	-7725
▁künstliche	-7726
▁massnahmen	-7727
▁mazedonien	-7728
▁mbeturinat	-7729
▁megjithëse	-7730
▁meridional	-7731
▁mikroorgan	-7732
▁mirëqenies	-7733
▁monitoring	-7734
▁nachhaltig	-7735
▁nationalen	-7736
▁nationaler	-7737
▁ndërthurur	-7738
▁ndërtimore	-7739
▁nährstoffe	-7740
▁organizmat	-7741
▁parandalim	-7742
▁paraqitura	-7743
▁parlaments	-7744
▁planetaren	-7745
▁prejardhje	-7746
▁problemeve	-7747
▁prodhimeve	-7748
▁psychische	-7749
▁përmbajtje	-7750
▁përshkruar	-7751
▁përshtatur	-7752
▁raportimit	-7753
▁raportuara	-7754
▁reaktionen	-7755
▁reduktimit	-7756
▁reflektuar	-7757
▁regjionale	-7758
▁rekreative	-7759
▁rregullimi	-7760
▁rrezikshëm	-7761
▁rückläufig	-7762
▁schwerwieg	-7763
▁shkëmbimin	-7764
▁steigerung	-7765
▁stromnetze	-7766
▁strukturen	-7767
▁suksesshme	-7768
▁teknologji	-7769
▁themeluara	-7770
▁umfassende	-7771
▁umstellung	-7772
▁vektoriale	-7773
▁verbraucht	-7774
▁verhältnis	-7775
▁vermeidung	-7776
▁verordnung	-7777
▁verringern	-7778
▁vorbeugung	-7779
▁vorläufers	-7780
▁vorzeitige	-7781
▁wahrschein	-7782
▁waldbrände	-7783
▁wettbewerb	-7784
▁wichtigste	-7785
▁zahlreiche	-7786
▁zhvillohen	-7787
▁zvogëlimit	-7788
▁übertragen	-7789
innovationen	-7790
morfologjike	-7791
steigerungen	-7792
ungsmethoden	-7793
▁abschmelzen	-7794
▁akullnajave	-7795
▁angeführten	-7796
▁ankurbelung	-7797
▁aquatischen	-7798
▁atmosferike	-7799
▁augenfällig	-7800
▁auseinander	-7801
▁ausgewählte	-7802
▁besteuerung	-7803
▁betroffenen	-7804
▁beurteilung	-7805
▁beziehungen	-7806
▁degradation	-7807
▁demografike	-7808
▁depozitimit	-7809
▁ekstraktimi	-7810
▁elektronike	-7811
▁erheblicher	-7812
▁eutrofikimi	-7813
▁fortschritt	-7814
▁fußabdrucks	-7815
▁gefährliche	-7816
▁gjeografike	-7817
▁harxhueshme	-7818
▁herstellung	-7819
▁individuale	-7820
▁ineffizient	-7821
▁informatave	-7822
▁innenräumen	-7823
▁kapacitetet	-7824
▁kläranlagen	-7825
▁komponenten	-7826
▁konkurrojnë	-7827
▁kontrolluar	-7828
▁llogaritjet	-7829
▁mesatarisht	-7830
▁monitorimin	-7831
▁monitorimit	-7832
▁natürlichem	-7833
▁ndjeshmëria	-7834
▁nënshtrohet	-7835
▁organischer	-7836
▁parlamentit	-7837
▁potencialin	-7838
▁problematik	-7839
▁përforcojnë	-7840
▁përmbushjes	-7841
▁përqendrime	-7842
▁përshtatjen	-7843
▁përzierjeve	-7844
▁reduktionen	-7845
▁refleksione	-7846
▁schließlich	-7847
▁schädlichen	-7848
▁shkurtesave	-7849
▁shpenzimeve	-7850
▁strategjinë	-7851
▁tatsächlich	-7852
▁temperatura	-7853
▁troposferik	-7854
▁umweltschäd	-7855
▁untergraben	-7856
▁unterscheid	-7857
▁urbanizimit	-7858
▁verbreitete	-7859
▁verbrennung	-7860
▁vereinigten	-7861
▁verlagerung	-7862
▁verursachen	-7863
▁veränderten	-7864
▁wasserkraft	-7865
▁zhvillimeve	-7866
▁zukünftigen	-7867
.............	-7868
investitionen	-7869
sorganisation	-7870
stechnologien	-7871
▁acidifikimit	-7872
▁angesprochen	-7873
▁badegewässer	-7874
▁beschleunigt	-7875
▁beschränkung	-7876
▁bewirtschaft	-7877
▁bilanzierung	-7878
▁biokapazität	-7879
▁durchgeführt	-7880
▁effizientere	-7881
▁europäischer	-7882
▁generationen	-7883
▁implementimi	-7884
▁intensifikim	-7885
▁investitions	-7886
▁kapaciteteve	-7887
▁katastrofike	-7888
▁katastrophal	-7889
▁konkurrencën	-7890
▁kurzfristige	-7891
▁letztendlich	-7892
▁megatrendeve	-7893
▁ndjeshmërisë	-7894
▁nebeneffekte	-7895
▁njëkohësisht	-7896
▁padëshiruara	-7897
▁parandaluese	-7898
▁pashmangshme	-7899
▁perspektivat	-7900
▁pjesëmarrjes	-7901
▁planifikimit	-7902
▁populationen	-7903
▁prioriteteve	-7904
▁përshpejtimi	-7905
▁përshtatshme	-7906
▁ripërdorimin	-7907
▁rregulloreve	-7908
▁schrittweise	-7909
▁shkretëtirëz	-7910
▁shqetësimeve	-7911
▁substitution	-7912
▁subventionen	-7913
▁teknologjike	-7914
▁teknologjitë	-7915
▁thematischen	-7916
▁tranzicionit	-7917
▁umweltaspekt	-7918
▁umweltzielen	-7919
▁verbindungen	-7920
▁verbreiteten	-7921
▁verbreitungs	-7922
▁verursachten	-7923
▁verwendungen	-7924
▁verändernden	-7925
▁vielfältigen	-7926
▁vorantreiben	-7927
▁wesentlichen	-7928
▁ökotoxizität	-7929
verunreinigung	-7930
wahrscheinlich	-7931
▁abkürzungsver	-7932
▁arbeitsplätze	-7933
▁artenvielfalt	-7934
▁beschäftigung	-7935
▁bodenqualität	-7936
▁eingeschränkt	-7937
▁entscheidende	-7938
▁frühwarnungen	-7939
▁grundlegender	-7940
▁größenordnung	-7941
▁hauptmerkmale	-7942
▁intensifikimi	-7943
▁jugoslawische	-7944
▁kontamination	-7945
▁konzentration	-7946
▁kurzfristigen	-7947
▁landbedeckung	-7948
▁langfristiger	-7949
▁legjislacioni	-7950
▁lihtenshtajni	-7951
▁luftqualitäts	-7952
▁lärmbelastung	-7953
▁ndërveprimeve	-7954
▁niederschlags	-7955
▁paqëndrueshëm	-7956
▁paralajmëruar	-7957
▁phytoplankton	-7958
▁sipërfaqësore	-7959
▁terrestrische	-7960
▁umfassenderen	-7961
▁unzureichende	-7962
▁vorausgesetzt	-7963
▁voraussetzung	-7964
▁wassernutzung	-7965
▁weitreichende	-7966
▁wüstenbildung	-7967
bedeckungsdaten	-7968
schutzmaßnahmen	-7969
überschreitende	-7970
▁abhängigkeiten	-7971
▁anfälligkeiten	-7972
▁beeinträchtigt	-7973
▁einzugsgebiete	-7974
▁ekoinovacionet	-7975
▁entscheidender	-7976
▁erforderlichen	-7977
▁gesellschaften	-7978
▁gleichgewichts	-7979
▁globalisierung	-7980
▁lebenswichtige	-7981
▁legjislacionit	-7982
▁multinacionale	-7983
▁papërshtatshme	-7984
▁paralajmërimet	-7985
▁risikofaktoren	-7986
▁schwerwiegende	-7987
▁stromerzeugung	-7988
▁säurebildenden	-7989
▁temperaturerhö	-7990
▁traditionellen	-7991
▁umweltbedingte	-7992
▁umweltschutzes	-7993
▁unterernährten	-7994
▁verarbeitenden	-7995
▁verunreinigtes	-7996
▁verunreinigung	-7997
▁wasserentnahme	-7998
▁beeinträchtigen	-7999
▁biodiverzitetin	-8000
▁biokarburanteve	-8001
▁einzugsgebieten	-8002
▁identifizierung	-8003
▁internationaler	-8004
▁konsumverhalten	-8005
▁paraindustriale	-8006
▁prognostizierte	-8007
▁quantifizierung	-8008
▁rauminformation	-8009
▁vorangegangenen	-8010
▁wasserentnahmen	-8011
▁weltbevölkerung	-8012
▁weltgesundheits	-8013
▁zusammensetzung	-8014
(2	-8015
1/	-8016
72	-8017
-38	-8018
.5.	-8019
1/7	-8020
117	-8021
140	-8022
28/	-8023
670	-8024
81)	-8025
84)	-8026
90)	-8027
aff	-8028
amb	-8029
ced	-8030
cks	-8031
doc	-8032
ebd	-8033
eua	-8034
fuq	-8035
hia	-8036
hly	-8037
hör	-8038
iun	-8039
kim	-8040
koc	-8041
msy	-8042
nga	-8043
oot	-8044
soi	-8045
who	-8046
äub	-8047
▁91	-8048
▁ds	-8049
▁öl	-8050
)235	-8051
-15.	-8052
-27:	-8053
-90)	-8054
..13	-8055
0670	-8056
1/77	-8057
aman	-8058
amet	-8059
ckta	-8060
disa	-8061
docs	-8062
düng	-8063
ecks	-8064
eleg	-8065
gjyk	-8066
holz	-8067
irgs	-8068
izot	-8069
jake	-8070
jkal	-8071
ksoi	-8072
lfen	-8073
llok	-8074
monë	-8075
oxid	-8076
pbas	-8077
päss	-8078
razi	-8079
rica	-8080
rtap	-8081
soer	-8082
spfa	-8083
stoß	-8084
stud	-8085
trav	-8086
vite	-8087
vjeç	-8088
wais	-8089
wast	-8090
zugs	-8091
zune	-8092
öpft	-8093
–100	-8094
▁(73	-8095
▁0,1	-8096
▁1,0	-8097
▁1,5	-8098
▁1,8	-8099
ue	-8100
▁>	-8101
del	-8102
lob	-8103
pbl	-8104
rëm	-8105
sbl	-8106
äne	-8107
ëta	-8108
öhn	-8109
▁42	-8110
2.5_	-8111
aike	-8112
amja	-8113
glob	-8114
hlen	-8115
hrge	-8116
nahe	-8117
nive	-8118
ogje	-8119
ruan	-8120
▁118	-8121
▁13%	-8122
▁138	-8123
▁169	-8124
▁170	-8125
▁176	-8126
▁231	-8127
▁24,	-8128
▁28%	-8129
▁30%	-8130
▁387	-8131
▁aku	-8132
▁ark	-8133
▁ars	-8134
▁arz	-8135
▁azi	-8136
▁blü	-8137
▁bri	-8138
▁con	-8139
▁eff	-8140
▁ghg	-8141
▁kür	-8142
▁lav	-8143
▁mad	-8144
▁msy	-8145
▁ple	-8146
▁row	-8147
▁sem	-8148
▁sep	-8149
▁who	-8150
▁www	-8151
(27).	-8152
-2006	-8153
-2010	-8154
/2007	-8155
1/77/	-8156
2009_	-8157
althy	-8158
ambic	-8159
armaz	-8160
ativa	-8161
diese	-8162
ditës	-8163
efekt	-8164
ehlen	-8165
elieg	-8166
erien	-8167
erika	-8168
ervor	-8169
esene	-8170
evrop	-8171
ffend	-8172
ffnet	-8173
fikje	-8174
geleg	-8175
idiar	-8176
ienen	-8177
iforn	-8178
ijeve	-8179
inale	-8180
inzip	-8181
issue	-8182
jenit	-8183
kapaz	-8184
karte	-8185
krebs	-8186
kräft	-8187
lette	-8188
letër	-8189
limin	-8190
markt	-8191
namea	-8192
neten	-8193
ohner	-8194
orgen	-8195
orten	-8196
ossen	-8197
pirat	-8198
pëzim	-8199
))	-8200
3.	-8201
db	-8202
3).	-8203
aps	-8204
nte	-8205
rys	-8206
rën	-8207
som	-8208
ërb	-8209
▁48	-8210
▁64	-8211
▁ju	-8212
ahme	-8213
bran	-8214
bund	-8215
etën	-8216
prop	-8217
rück	-8218
tret	-8219
zuze	-8220
▁151	-8221
▁3,1	-8222
▁anl	-8223
▁bap	-8224
▁bod	-8225
▁kën	-8226
▁qen	-8227
▁sto	-8228
anëve	-8229
ettet	-8230
fähre	-8231
gjent	-8232
kaliz	-8233
reide	-8234
rikte	-8235
ritte	-8236
ropos	-8237
schul	-8238
shiko	-8239
slärm	-8240
snetz	-8241
teile	-8242
tokol	-8243
treme	-8244
urave	-8245
waste	-8246
yrore	-8247
ëtimi	-8248
ëvjeç	-8249
örper	-8250
üfung	-8251
▁(12)	-8252
▁(203	-8253
▁(28)	-8254
▁(31)	-8255
▁(32)	-8256
▁(41)	-8257
▁(44)	-8258
▁(8).	-8259
▁(84)	-8260
▁0,18	-8261
▁12,4	-8262
▁1961	-8263
▁2030	-8264
▁2090	-8265
▁beba	-8266
▁bemü	-8267
▁beru	-8268
▁beun	-8269
▁bild	-8270
▁dall	-8271
▁dysh	-8272
▁dërg	-8273
▁eduk	-8274
▁elef	-8275
▁endg	-8276
▁frym	-8277
▁ftoh	-8278
▁gara	-8279
▁gebä	-8280
▁inzw	-8281
▁irre	-8282
▁jonë	-8283
▁jost	-8284
▁jugu	-8285
▁kamp	-8286
▁kyçe	-8287
▁kürz	-8288
▁lage	-8289
▁last	-8290
▁liva	-8291
▁llum	-8292
▁matë	-8293
▁ndah	-8294
▁ngan	-8295
▁ofro	-8296
▁pafa	-8297
▁phän	-8298
▁pikë	-8299
-)	-8300
/4	-8301
du	-8302
▁ä	-8303
/49	-8304
com	-8305
dar	-8306
don	-8307
fta	-8308
imp	-8309
iot	-8310
ity	-8311
los	-8312
lot	-8313
ode	-8314
por	-8315
ruh	-8316
son	-8317
wes	-8318
▁ik	-8319
▁ër	-8320
/49/	-8321
2004	-8322
arme	-8323
baus	-8324
efta	-8325
ergj	-8326
htit	-8327
last	-8328
mend	-8329
nahm	-8330
ollë	-8331
omer	-8332
orit	-8333
tuar	-8334
wirb	-8335
ächt	-8336
▁384	-8337
▁bor	-8338
▁sbl	-8339
▁son	-8340
▁ull	-8341
▁ërq	-8342
2004—	-8343
erten	-8344
etten	-8345
gänge	-8346
ilber	-8347
irëse	-8348
lomer	-8349
ohtit	-8350
qedon	-8351
ruhig	-8352
ëvesh	-8353
▁bele	-8354
▁gjin	-8355
▁kohl	-8356
▁pleh	-8357
▁poly	-8358
▁prap	-8359
▁prax	-8360
▁pret	-8361
▁reis	-8362
▁rigj	-8363
▁skoc	-8364
▁smog	-8365
▁sonë	-8366
▁stet	-8367
▁süde	-8368
▁torf	-8369
▁trus	-8370
▁trys	-8371
▁usht	-8372
▁vent	-8373
▁vlef	-8374
▁vull	-8375
▁wild	-8376
▁zjar	-8377
...121	-8378
2009_1	-8379
ametër	-8380
andelt	-8381
atform	-8382
azheve	-8383
bungen	-8384
cockta	-8385
ditimi	-8386
dünger	-8387
eionet	-8388
ennium	-8389
ergien	-8390
erhöht	-8391
facher	-8392
finanz	-8393
folger	-8394
fähige	-8395
fältig	-8396
gesell	-8397
hmasse	-8398
hrgeiz	-8399
(3	-8400
1-	-8401
ean	-8402
fid	-8403
tur	-8404
ërm	-8405
▁(=	-8406
▁29	-8407
▁nä	-8408
▁pi	-8409
▁tö	-8410
ancë	-8411
heer	-8412
imal	-8413
imik	-8414
okal	-8415
sfid	-8416
stät	-8417
ückt	-8418
▁2,0	-8419
▁350	-8420
▁cap	-8421
▁mig	-8422
▁nen	-8423
▁töd	-8424
▁vir	-8425
▁zer	-8426
aziel	-8427
ingle	-8428
legen	-8429
rezat	-8430
ërmia	-8431
ünder	-8432
▁flut	-8433
▁rein	-8434
alette	-8435
atimit	-8436
berein	-8437
forsch	-8438
hörden	-8439
ianëve	-8440
icenca	-8441
iciale	-8442
iertes	-8443
igsten	-8444
ikuara	-8445
imitet	-8446
injake	-8447
isläuf	-8448
ismave	-8449
itarët	-8450
itimit	-8451
iziert	-8452
izioni	-8453
izotër	-8454
kohlen	-8455
messer	-8456
ofluor	-8457
ogjene	-8458
ohnern	-8459
okimik	-8460
olaren	-8461
omasse	-8462
oniaku	-8463
orgnis	-8464
polare	-8465
portal	-8466
preise	-8467
progra	-8468
rinzip	-8469
rëmjes	-8470
schöpf	-8471
sfidat	-8472
spfade	-8473
spläne	-8474
stoßes	-8475
tliche	-8476
träger	-8477
ulojnë	-8478
umbull	-8479
uwachs	-8480
verfüg	-8481
versch	-8482
versib	-8483
vollen	-8484
wesens	-8485
ysikal	-8486
zunehm	-8487
äubung	-8488
öffnet	-8489
▁(102)	-8490
▁(12),	-8491
▁(136)	-8492
▁(14),	-8493
▁(18).	-8494
▁(24).	-8495
▁(32).	-8496
▁(381)	-8497
▁(40).	-8498
▁(41).	-8499
%)	-8500
▁x	-8501
cap	-8502
ieß	-8503
pkw	-8504
pos	-8505
tes	-8506
▁36	-8507
▁eb	-8508
▁mi	-8509
▁uk	-8510
enia	-8511
kbar	-8512
kses	-8513
usia	-8514
ënjë	-8515
▁2,5	-8516
▁ers	-8517
▁mis	-8518
▁nis	-8519
▁pat	-8520
▁red	-8521
▁rit	-8522
▁tor	-8523
dorim	-8524
elter	-8525
irave	-8526
istan	-8527
shore	-8528
▁ebro	-8529
▁ukra	-8530
erkbar	-8531
imisht	-8532
istent	-8533
itjeve	-8534
person	-8535
utigen	-8536
▁(42);	-8537
▁(49),	-8538
▁(51).	-8539
▁(57).	-8540
▁(63).	-8541
▁(79).	-8542
▁14001	-8543
▁18.5.	-8544
▁2010)	-8545
▁2010:	-8546
▁2020;	-8547
▁9001:	-8548
▁akses	-8549
▁anzum	-8550
▁argum	-8551
▁artif	-8552
▁arzne	-8553
▁asthm	-8554
▁avant	-8555
▁barra	-8556
▁bauge	-8557
▁bioge	-8558
▁biota	-8559
▁bllok	-8560
▁bollë	-8561
▁brakt	-8562
▁derdh	-8563
▁deser	-8564
▁detin	-8565
▁duhej	-8566
▁einst	-8567
▁ejkal	-8568
▁emigr	-8569
▁endet	-8570
▁endër	-8571
▁engem	-8572
▁entwe	-8573
▁erdbe	-8574
▁erder	-8575
▁essen	-8576
▁faser	-8577
▁fehlt	-8578
▁flamm	-8579
▁freku	-8580
▁futja	-8581
▁fälle	-8582
▁genüg	-8583
▁gleit	-8584
▁greqi	-8585
▁guter	-8586
▁herbe	-8587
▁hisen	-8588
▁hoher	-8589
▁hohes	-8590
▁hyjnë	-8591
▁intel	-8592
▁jenen	-8593
▁kraft	-8594
▁krebs	-8595
▁kroac	-8596
▁kutia	-8597
▁letra	-8598
▁linjë	-8599
0/	-8600
2-	-8601
6%	-8602
ai	-8603
eb	-8604
rl	-8605
tä	-8606
wo	-8607
▁+	-8608
vis	-8609
/30/	-8610
aiqe	-8611
enda	-8612
hrle	-8613
izim	-8614
ksib	-8615
obsh	-8616
teeb	-8617
uren	-8618
▁105	-8619
▁ant	-8620
▁cit	-8621
▁sob	-8622
▁uap	-8623
ajtur	-8624
izajn	-8625
lebew	-8626
sisht	-8627
vazhd	-8628
▁intu	-8629
▁kemi	-8630
▁präs	-8631
▁seen	-8632
aldung	-8633
gruppe	-8634
ozaiqe	-8635
utzten	-8636
▁(34).	-8637
▁(35).	-8638
▁1998.	-8639
▁alltä	-8640
▁barrë	-8641
▁jetzt	-8642
▁kohor	-8643
▁liqen	-8644
▁madje	-8645
▁mbyll	-8646
▁mittl	-8647
▁molda	-8648
▁multi	-8649
▁netze	-8650
▁nisma	-8651
▁oksig	-8652
▁ozoni	-8653
▁pamje	-8654
▁paper	-8655
▁paten	-8656
▁peter	-8657
▁pikëp	-8658
▁posht	-8659
▁produ	-8660
▁prova	-8661
▁punkt	-8662
▁punën	-8663
▁ristr	-8664
▁ritja	-8665
▁rolit	-8666
▁sanit	-8667
▁schle	-8668
▁sechs	-8669
▁sepse	-8670
▁shuma	-8671
▁sinte	-8672
▁sonst	-8673
▁sorge	-8674
▁stero	-8675
▁strah	-8676
▁synth	-8677
▁tages	-8678
▁thata	-8679
▁tipat	-8680
▁tonne	-8681
▁torfe	-8682
▁trupa	-8683
▁ungew	-8684
▁unver	-8685
▁volat	-8686
▁weide	-8687
▁zudem	-8688
▁öfter	-8689
2009_1_	-8690
akteret	-8691
angebot	-8692
antarkt	-8693
ausbeut	-8694
blicken	-8695
chitekt	-8696
chnical	-8697
einzugs	-8698
ektuale	-8699
):	-8700
1%	-8701
1:	-8702
45	-8703
5,	-8704
69	-8705
cl	-8706
“,	-8707
▁!	-8708
▁'	-8709
fiz	-8710
liz	-8711
one	-8712
usi	-8713
üge	-8714
▁27	-8715
▁üb	-8716
2008	-8717
bere	-8718
iere	-8719
▁däm	-8720
▁ham	-8721
▁lat	-8722
▁ras	-8723
▁sat	-8724
▁thg	-8725
itten	-8726
rimin	-8727
▁dest	-8728
▁eins	-8729
▁einw	-8730
▁flug	-8731
▁shnd	-8732
▁stil	-8733
ierbar	-8734
ützten	-8735
▁bleif	-8736
▁sfond	-8737
elektiv	-8738
elungen	-8739
emessen	-8740
energji	-8741
erlands	-8742
ferimit	-8743
gebogen	-8744
geräten	-8745
gesunde	-8746
gewogen	-8747
gischen	-8748
gjerëve	-8749
healthy	-8750
hysikal	-8751
ication	-8752
ideland	-8753
igungen	-8754
imieren	-8755
imizuar	-8756
lokaliz	-8757
monitor	-8758
mäßigen	-8759
reitete	-8760
ripëzim	-8761
rrjetet	-8762
salzung	-8763
schende	-8764
sikurse	-8765
standen	-8766
utinore	-8767
verläss	-8768
volumen	-8769
wachsen	-8770
weidung	-8771
wertete	-8772
ësishme	-8773
ünstigt	-8774
▁1990);	-8775
▁2008).	-8776
▁abscha	-8777
▁absorb	-8778
▁aktive	-8779
▁algave	-8780
▁amazon	-8781
▁andora	-8782
▁anfang	-8783
▁arrijn	-8784
▁ashpër	-8785
▁asthma	-8786
▁aufmer	-8787
▁balkan	-8788
▁balken	-8789
▁banorë	-8790
▁bardhë	-8791
▁barëra	-8792
▁bedroh	-8793
▁berlin	-8794
▁bilanc	-8795
▁biogje	-8796
▁biphen	-8797
▁brezat	-8798
▁ciklin	-8799
.,	-8800
-25	-8801
air	-8802
cat	-8803
kuj	-8804
mrd	-8805
sal	-8806
tal	-8807
tec	-8808
▁(0	-8809
▁ca	-8810
▁–,	-8811
ales	-8812
alit	-8813
jeje	-8814
tung	-8815
▁1).	-8816
▁113	-8817
▁4),	-8818
▁772	-8819
▁sal	-8820
▁vez	-8821
▁zyr	-8822
ropri	-8823
schon	-8824
▁eint	-8825
▁radh	-8826
▁salz	-8827
endere	-8828
meeres	-8829
reifen	-8830
▁2000.	-8831
▁autom	-8832
▁daran	-8833
▁jetoj	-8834
▁parim	-8835
▁pikat	-8836
▁räume	-8837
▁siehe	-8838
▁vlera	-8839
anreich	-8840
climate	-8841
haltige	-8842
ivalent	-8843
ppropri	-8844
sprogra	-8845
ständen	-8846
▁anhalt	-8847
▁detyra	-8848
▁deutet	-8849
▁dobëta	-8850
▁drohen	-8851
▁econom	-8852
▁eigene	-8853
▁eksten	-8854
▁elimin	-8855
▁erkenn	-8856
▁ermitt	-8857
▁ertrag	-8858
▁erwähn	-8859
▁europe	-8860
▁familj	-8861
▁fituar	-8862
▁fizike	-8863
▁flukse	-8864
▁flüsse	-8865
▁fokuss	-8866
▁forest	-8867
▁formën	-8868
▁frühen	-8869
▁futter	-8870
▁führte	-8871
▁ganzes	-8872
▁gehört	-8873
▁gestat	-8874
▁gjetkë	-8875
▁gjirin	-8876
▁gjysma	-8877
▁grenze	-8878
▁gropos	-8879
▁hormon	-8880
▁humbur	-8881
▁inhalt	-8882
▁intell	-8883
▁irgend	-8884
▁ishujt	-8885
▁keinen	-8886
▁kippel	-8887
▁kishte	-8888
▁klaren	-8889
▁klimën	-8890
▁kommer	-8891
▁krisen	-8892
▁kërkoj	-8893
▁lassen	-8894
▁leicht	-8895
▁lumenj	-8896
▁lösung	-8897
▁makina	-8898
▁malore	-8899
-1	-8900
ej	-8901
pb	-8902
zh	-8903
aem	-8904
aut	-8905
eap	-8906
enp	-8907
hte	-8908
kjo	-8909
las	-8910
olf	-8911
zhv	-8912
▁22	-8913
▁iq	-8914
bank	-8915
inës	-8916
irit	-8917
onet	-8918
teve	-8919
▁fer	-8920
▁ppb	-8921
▁tre	-8922
bejnë	-8923
denkt	-8924
endem	-8925
indja	-8926
ionit	-8927
rafen	-8928
uglas	-8929
ärken	-8930
▁....	-8931
▁arom	-8932
▁bric	-8933
▁golf	-8934
▁ndje	-8935
▁pari	-8936
barten	-8937
sidiar	-8938
trägen	-8939
▁2000,	-8940
▁2002,	-8941
▁aufwe	-8942
▁berat	-8943
▁farat	-8944
▁iqnet	-8945
▁proje	-8946
▁sogen	-8947
▁stopp	-8948
▁verës	-8949
▁zuvor	-8950
atformë	-8951
emische	-8952
▁1980-1	-8953
▁anlass	-8954
▁breite	-8955
▁brisht	-8956
▁helfen	-8957
▁mbajnë	-8958
▁mbulim	-8959
▁merkur	-8960
▁merret	-8961
▁method	-8962
▁mirave	-8963
▁mishër	-8964
▁mjetet	-8965
▁mortal	-8966
▁multif	-8967
▁mungon	-8968
▁märkte	-8969
▁nachts	-8970
▁natyrë	-8971
▁nervor	-8972
▁nettoz	-8973
▁neuere	-8974
▁ngrejë	-8975
▁nivele	-8976
▁oberen	-8977
▁offene	-8978
▁ofrojë	-8979
▁onsumi	-8980
▁ozonlo	-8981
▁pakual	-8982
▁palëve	-8983
▁persön	-8984
▁pranon	-8985
▁praxis	-8986
▁prerja	-8987
▁pyetje	-8988
▁quecks	-8989
▁rasant	-8990
▁rralla	-8991
▁rrënjë	-8992
▁sasior	-8993
▁sasira	-8994
▁sasive	-8995
▁schmet	-8996
▁server	-8997
▁shumtë	-8998
▁shënon	-8999
cb	-9000
50,	-9001
gut	-9002
hum	-9003
▁90	-9004
▁lo	-9005
edhe	-9006
kthe	-9007
onjë	-9008
rare	-9009
strä	-9010
treg	-9011
▁110	-9012
▁div	-9013
▁fes	-9014
▁näh	-9015
▁pcb	-9016
istet	-9017
leist	-9018
onnen	-9019
orden	-9020
unnen	-9021
▁(17)	-9022
▁dopp	-9023
▁emas	-9024
▁gjob	-9025
▁klar	-9026
▁krip	-9027
▁sakt	-9028
▁sfer	-9029
fachen	-9030
ioneve	-9031
konten	-9032
raster	-9033
▁ajror	-9034
▁cover	-9035
▁dalin	-9036
▁gratë	-9037
▁india	-9038
▁lagen	-9039
▁logar	-9040
▁smart	-9041
▁wenig	-9042
ckenden	-9043
fahrens	-9044
importe	-9045
sgefahr	-9046
sträger	-9047
▁eionet	-9048
▁lifest	-9049
▁mbulon	-9050
▁ndonjë	-9051
▁provat	-9052
▁skenar	-9053
▁sobald	-9054
▁sollen	-9055
▁sollte	-9056
▁spanjë	-9057
▁spüren	-9058
▁starke	-9059
▁stetig	-9060
▁stoqet	-9061
▁tabela	-9062
▁tipave	-9063
▁trende	-9064
▁tretat	-9065
▁tropik	-9066
▁träger	-9067
▁ultrav	-9068
▁umfeld	-9069
▁unfccc	-9070
▁varemi	-9071
▁vdekje	-9072
▁vdekur	-9073
▁ventil	-9074
▁veprim	-9075
▁vepron	-9076
▁verior	-9077
▁verzög	-9078
▁vetitë	-9079
▁vetjak	-9080
▁vetëdi	-9081
▁vezëve	-9082
▁vieles	-9083
▁waldes	-9084
▁werten	-9085
▁wohler	-9086
▁zbutur	-9087
▁zogjve	-9088
▁überhö	-9089
_2009_1_	-9090
abilitet	-9091
agjerëve	-9092
atischen	-9093
bereitet	-9094
berichte	-9095
beschrän	-9096
bezogene	-9097
biomasse	-9098
endioxid	-9099
▁μ	-9100
ksa	-9101
pak	-9102
wei	-9103
zwe	-9104
▁%.	-9105
▁28	-9106
▁76	-9107
akia	-9108
angt	-9109
emde	-9110
ingt	-9111
inne	-9112
ppen	-9113
sive	-9114
tare	-9115
▁197	-9116
▁fün	-9117
▁gar	-9118
-2005	-9119
2010.	-9120
illen	-9121
isetz	-9122
okarb	-9123
▁fare	-9124
▁fünf	-9125
▁kinë	-9126
▁këta	-9127
▁mesi	-9128
▁prez	-9129
▁prof	-9130
entëve	-9131
fremde	-9132
gründe	-9133
inuara	-9134
merren	-9135
ucioni	-9136
▁jetën	-9137
▁kapur	-9138
▁shpal	-9139
▁trash	-9140
▁unike	-9141
gestuft	-9142
sfremde	-9143
▁großer	-9144
▁lidhet	-9145
▁peshku	-9146
▁varësi	-9147
▁wirksa	-9148
ationale	-9149
erations	-9150
erhöhtes	-9151
european	-9152
evropian	-9153
fristige	-9154
gebettet	-9155
gefahren	-9156
gjithatë	-9157
grüneren	-9158
heerende	-9159
ickstoff	-9160
ifiziert	-9161
imischen	-9162
inderung	-9163
ionsplan	-9164
ipolaren	-9165
isetzung	-9166
istikore	-9167
leistung	-9168
linearen	-9169
lässlich	-9170
mbetjeve	-9171
oditjeve	-9172
ootprint	-9173
orcionin	-9174
orofluor	-9175
piratore	-9176
produkte	-9177
prozesse	-9178
qedonisë	-9179
rohmasse	-9180
rschende	-9181
shmërisë	-9182
speriode	-9183
sprinzip	-9184
sprodukt	-9185
sprozess	-9186
ssystems	-9187
stehende	-9188
teilungs	-9189
terlings	-9190
ursachen	-9191
verschie	-9192
vorteile	-9193
vështrim	-9194
wemmungs	-9195
zeitiges	-9196
zustands	-9197
zuzeigen	-9198
ëmarrjes	-9199
6),	-9200
eea	-9201
keq	-9202
peg	-9203
▁5,	-9204
▁6%	-9205
▁ür	-9206
ated	-9207
data	-9208
gern	-9209
jojë	-9210
lloj	-9211
olta	-9212
pret	-9213
rish	-9214
ögen	-9215
▁(26	-9216
▁2),	-9217
▁ata	-9218
beweg	-9219
elern	-9220
ildes	-9221
ishin	-9222
mesme	-9223
ponia	-9224
quant	-9225
strom	-9226
▁fahr	-9227
▁rate	-9228
fragen	-9229
gehalt	-9230
haltet	-9231
jektiv	-9232
ovolta	-9233
unders	-9234
▁(16),	-9235
▁dalys	-9236
▁darst	-9237
▁darum	-9238
▁heran	-9239
▁herët	-9240
▁ndesh	-9241
▁osten	-9242
ichtete	-9243
imittel	-9244
rachten	-9245
reichem	-9246
reichen	-9247
▁allein	-9248
▁anfall	-9249
▁daraus	-9250
▁gehalt	-9251
▁gelten	-9252
▁hinweg	-9253
▁shifra	-9254
▁vision	-9255
▁weitem	-9256
▁zweite	-9257
bewegung	-9258
zhvillim	-9259
örderung	-9260
▁2009/1:	-9261
▁abzusch	-9262
▁analiza	-9263
▁angeleg	-9264
▁anijeve	-9265
▁arktiku	-9266
▁arrijne	-9267
▁artikel	-9268
▁ausweit	-9269
▁bedarfs	-9270
▁begriff	-9271
▁bemühen	-9272
▁binjake	-9273
▁biotike	-9274
▁biskajë	-9275
▁bleifre	-9276
▁bodende	-9277
▁boreale	-9278
▁braktis	-9279
▁breiten	-9280
▁breites	-9281
▁brunnen	-9282
▁citohet	-9283
▁dallime	-9284
▁datener	-9285
▁dekadat	-9286
▁deponim	-9287
▁details	-9288
▁disprop	-9289
▁douglas	-9290
▁drejtat	-9291
▁drithër	-9292
▁duhanit	-9293
▁ehrgeiz	-9294
▁eingang	-9295
▁ekotoks	-9296
▁emitten	-9297
▁energet	-9298
▁enthält	-9299
-4	-9300
oi	-9301
zë	-9302
agn	-9303
▁47	-9304
▁58	-9305
▁61	-9306
efon	-9307
gesp	-9308
luft	-9309
▁dor	-9310
▁ngr	-9311
▁usa	-9312
...80	-9313
altën	-9314
ancen	-9315
annte	-9316
arker	-9317
baren	-9318
infra	-9319
isiko	-9320
▁1992	-9321
▁bota	-9322
▁ditë	-9323
▁dren	-9324
▁etik	-9325
▁inov	-9326
▁neth	-9327
▁shtr	-9328
▁turb	-9329
▁wrrl	-9330
▁zone	-9331
eutika	-9332
hängen	-9333
ohshme	-9334
▁(47).	-9335
▁(48).	-9336
▁2015.	-9337
▁itali	-9338
▁pranë	-9339
▁shter	-9340
▁stagn	-9341
shënime	-9342
unktion	-9343
▁burrat	-9344
▁drejtë	-9345
▁lidhja	-9346
▁maltën	-9347
▁ndarje	-9348
▁numrin	-9349
▁shtimi	-9350
▁autorët	-9351
▁eigenen	-9352
▁erfolgs	-9353
▁erkrank	-9354
▁ersetzt	-9355
▁erwirkt	-9356
▁erwähnt	-9357
▁exporte	-9358
▁fleisch	-9359
▁fleksib	-9360
▁fordert	-9361
▁formave	-9362
▁ftohtit	-9363
▁färöern	-9364
▁gebirgs	-9365
▁geboten	-9366
▁gefährd	-9367
▁gelangt	-9368
▁gelegen	-9369
▁gewesen	-9370
▁gewicht	-9371
▁gewinne	-9372
▁geänder	-9373
▁gjashtë	-9374
▁gjetura	-9375
▁gjithse	-9376
▁gleiche	-9377
▁greqisë	-9378
▁gruppen	-9379
▁hektarë	-9380
▁holzein	-9381
▁hygiene	-9382
▁integro	-9383
▁japonia	-9384
▁jashtëm	-9385
▁jeweils	-9386
▁kindern	-9387
▁konserv	-9388
▁korniza	-9389
▁krijojë	-9390
▁kroacia	-9391
▁kufirit	-9392
▁kullimi	-9393
▁kuptimi	-9394
▁kërkime	-9395
▁lavaman	-9396
▁letonia	-9397
▁licenca	-9398
▁liefern	-9399
–5	-9400
-27.	-9401
bane	-9402
gabe	-9403
kani	-9404
mëri	-9405
ndes	-9406
städ	-9407
wenn	-9408
▁(19	-9409
▁1,9	-9410
▁600	-9411
▁gas	-9412
ichen	-9413
prodh	-9414
▁(24%	-9415
▁imta	-9416
▁kenn	-9417
▁ulja	-9418
entave	-9419
etcacc	-9420
gleich	-9421
ktonit	-9422
merken	-9423
reihen	-9424
urbane	-9425
▁(38).	-9426
▁duhen	-9427
▁dëmet	-9428
▁grüne	-9429
▁jedes	-9430
▁larje	-9431
▁njësi	-9432
▁pesha	-9433
▁unser	-9434
▁vetme	-9435
ambicia	-9436
snetzes	-9437
städten	-9438
▁angest	-9439
▁faktin	-9440
▁qasjen	-9441
▁qendër	-9442
▁schein	-9443
▁selten	-9444
▁trendi	-9445
iegelung	-9446
▁account	-9447
▁limitet	-9448
▁lokaler	-9449
▁luajtur	-9450
▁lëvizje	-9451
▁marrjen	-9452
▁matshme	-9453
▁mbajtja	-9454
▁mbajtur	-9455
▁mbetura	-9456
▁meerest	-9457
▁mesdheu	-9458
▁mineral	-9459
▁mosaike	-9460
▁moshuar	-9461
▁mozaiqe	-9462
▁nachdem	-9463
▁nanomat	-9464
▁ndaloni	-9465
▁ndarjen	-9466
▁ndarjes	-9467
▁ndodhja	-9468
▁nevojës	-9469
▁nismave	-9470
▁njohjen	-9471
▁oksidet	-9472
▁organic	-9473
▁pabaraz	-9474
▁pafavor	-9475
▁palette	-9476
▁pasojnë	-9477
▁pellgun	-9478
▁pengesa	-9479
▁perform	-9480
▁peshkat	-9481
▁pharmaz	-9482
▁plumbit	-9483
▁primary	-9484
▁prinzip	-9485
▁projekt	-9486
▁prüfung	-9487
▁përsëri	-9488
▁rasteve	-9489
▁raubbau	-9490
▁referen	-9491
▁reforma	-9492
▁respekt	-9493
▁rritjet	-9494
▁rückzug	-9495
▁scheint	-9496
▁schwank	-9497
▁schätzt	-9498
▁sensibl	-9499
▁8,	-9500
▁82	-9501
ushq	-9502
yoll	-9503
▁bëj	-9504
-2050	-9505
model	-9506
ollar	-9507
tzahl	-9508
umens	-9509
–2008	-9510
▁bank	-9511
▁baza	-9512
▁brom	-9513
▁fren	-9514
▁jens	-9515
▁mush	-9516
▁paku	-9517
▁sorg	-9518
bundes	-9519
odhimi	-9520
ziehen	-9521
ësorin	-9522
▁(36).	-9523
▁2000—	-9524
▁datës	-9525
▁gazit	-9526
▁ihrem	-9527
▁pragu	-9528
▁shtoj	-9529
▁vrojt	-9530
affungs	-9531
modelet	-9532
ringung	-9533
verbess	-9534
wachung	-9535
▁comput	-9536
▁dëmtim	-9537
▁großem	-9538
▁großes	-9539
▁langem	-9540
▁pyllit	-9541
feedback	-9542
▁bartëse	-9543
▁dëmtuar	-9544
▁efikase	-9545
▁nutzens	-9546
▁pranuar	-9547
▁rajonin	-9548
▁rodhimi	-9549
▁sezonit	-9550
▁shtetet	-9551
▁shërben	-9552
▁sigurta	-9553
▁sintezë	-9554
▁situata	-9555
▁sjellja	-9556
▁skenarë	-9557
▁stammen	-9558
▁starken	-9559
▁stickox	-9560
▁stoffen	-9561
▁stoppen	-9562
▁strenge	-9563
▁stresit	-9564
▁strikte	-9565
▁stärken	-9566
▁stärker	-9567
▁subjekt	-9568
▁synimet	-9569
▁systems	-9570
▁tematik	-9571
▁tepërta	-9572
▁theksoi	-9573
▁themelo	-9574
▁thërmia	-9575
▁tjetrën	-9576
▁totholz	-9577
▁traktat	-9578
▁trinken	-9579
▁udhëtar	-9580
▁unseren	-9581
▁urgjent	-9582
▁ursache	-9583
▁ushqyes	-9584
▁verfügt	-9585
▁verlang	-9586
▁verläng	-9587
▁vermehr	-9588
▁vlerave	-9589
▁wachsen	-9590
▁wandels	-9591
▁weiters	-9592
▁welchen	-9593
▁welcher	-9594
▁wertvol	-9595
▁wirksam	-9596
▁wärmeer	-9597
▁zgjatje	-9598
▁zgjatur	-9599
eur	-9600
etze	-9601
smat	-9602
ëput	-9603
▁250	-9604
▁280	-9605
▁650	-9606
▁hot	-9607
▁moc	-9608
haupt	-9609
nacht	-9610
üllen	-9611
▁baut	-9612
▁ices	-9613
▁legt	-9614
eicher	-9615
gebend	-9616
▁(13).	-9617
▁(26).	-9618
▁anbau	-9619
▁moder	-9620
▁pllen	-9621
▁teile	-9622
ativave	-9623
schicht	-9624
zentren	-9625
▁ausbau	-9626
▁beschl	-9627
▁financ	-9628
▁fosfor	-9629
▁größer	-9630
▁hervor	-9631
▁lindin	-9632
▁maßgeb	-9633
▁normen	-9634
▁vjetër	-9635
verständ	-9636
▁freiges	-9637
▁kufizoj	-9638
▁ndihmon	-9639
▁ofruara	-9640
▁regjist	-9641
▁rrugëve	-9642
▁shkëput	-9643
▁tregtar	-9644
▁tschech	-9645
▁vërteta	-9646
▁zugangs	-9647
▁zvicera	-9648
▁çështja	-9649
001:2004—	-9650
abteilung	-9651
aufbereit	-9652
ausschuss	-9653
barkeiten	-9654
berichten	-9655
beziehung	-9656
bezogenen	-9657
biodivers	-9658
bundesamt	-9659
efiçiente	-9660
erenzwert	-9661
feldioxid	-9662
förderung	-9663
gesetzten	-9664
gewässern	-9665
gradation	-9666
grundlage	-9667
hnenswert	-9668
hrleisten	-9669
ikationen	-9670
intensive	-9671
ispolitik	-9672
kapazität	-9673
klimaziel	-9674
kontrolle	-9675
kreisläuf	-9676
lebewesen	-9677
neuerbare	-9678
ophysikal	-9679
orcionale	-9680
prognosen	-9681
protokoll	-9682
përfitime	-9683
quantität	-9684
recycling	-9685
rishikimi	-9686
ungsindex	-9687
usstseins	-9688
vazhdojnë	-9689
verpflich	-9690
westliche	-9691
ëvjeçarit	-9692
▁2001/77/	-9693
▁2002/49/	-9694
▁2003/30/	-9695
▁20052008	-9696
▁2009/28/	-9697
▁abstrakt	-9698
▁aciduese	-9699
2,	-9700
-0,	-9701
129	-9702
egt	-9703
umi	-9704
▁46	-9705
fert	-9706
größ	-9707
izip	-9708
▁35%	-9709
▁50°	-9710
▁heq	-9711
▁pfl	-9712
ualer	-9713
▁(11)	-9714
▁1985	-9715
▁diab	-9716
▁miri	-9717
▁phot	-9718
immarr	-9719
▁abiot	-9720
▁bioab	-9721
▁bleie	-9722
▁dinam	-9723
▁futur	-9724
▁revol	-9725
▁shpes	-9726
schmutz	-9727
spannen	-9728
steller	-9729
▁bildet	-9730
▁dekada	-9731
▁dekadë	-9732
▁fasern	-9733
▁schimm	-9734
▁vërejt	-9735
efiçient	-9736
▁botëror	-9737
▁erzeugt	-9738
▁kompani	-9739
▁laicher	-9740
▁liefert	-9741
▁ndodhur	-9742
▁rrugore	-9743
chnologie	-9744
▁agjencia	-9745
▁aktionen	-9746
▁amoniaku	-9747
▁anderswo	-9748
▁anforder	-9749
▁annahmen	-9750
▁ansatzes	-9751
▁appropri	-9752
▁arkitekt	-9753
▁arktikut	-9754
▁arsyetim	-9755
▁aufweist	-9756
▁ausfälle	-9757
▁ausgaben	-9758
▁ausmaßes	-9759
▁auswirkt	-9760
▁aviacion	-9761
▁bakteret	-9762
▁ballungs	-9763
▁bashkëve	-9764
▁bebauten	-9765
▁bedeuten	-9766
▁befindet	-9767
▁begrenzt	-9768
▁behinder	-9769
▁bemerken	-9770
▁benötigt	-9771
▁berichts	-9772
▁bestands	-9773
▁bilancin	-9774
▁biomasën	-9775
▁biznesit	-9776
▁darunter	-9777
▁dedikuar	-9778
▁desertec	-9779
▁destabil	-9780
▁diametër	-9781
▁diskutua	-9782
▁dringend	-9783
▁dëmtimet	-9784
▁dëmtojnë	-9785
▁dështime	-9786
▁dështimi	-9787
▁economic	-9788
▁effektiv	-9789
▁eigentum	-9790
▁einblick	-9791
▁eksporte	-9792
▁emisione	-9793
▁entsteht	-9794
▁entweder	-9795
▁erfassen	-9796
▁erforsch	-9797
▁erfüllen	-9798
▁eröffnet	-9799
rechnung	-9800
▁europian	-9801
▁familjet	-9802
▁fenologj	-9803
▁fokusuar	-9804
▁folgende	-9805
▁folglich	-9806
▁forcimit	-9807
▁fossilen	-9808
▁früheren	-9809
▁futprint	-9810
▁gegangen	-9811
▁gekommen	-9812
▁gemessen	-9813
▁genügend	-9814
▁geopolit	-9815
▁gerechte	-9816
▁gesunder	-9817
▁gesünder	-9818
▁getreide	-9819
▁gewinnen	-9820
▁gewonnen	-9821
▁gezeiten	-9822
▁gjeturat	-9823
▁gjitarët	-9824
▁gleicher	-9825
▁grimcave	-9826
▁großräum	-9827
▁grumbull	-9828
▁grönland	-9829
▁grünbuch	-9830
▁harxhimi	-9831
▁heutigen	-9832
▁hulumtim	-9833
▁humbjeve	-9834
▁importen	-9835
▁indessen	-9836
▁iniciuar	-9837
▁institut	-9838
▁interven	-9839
▁invasive	-9840
▁izoluara	-9841
▁jetësore	-9842
▁jüngsten	-9843
▁kalender	-9844
▁kaliforn	-9845
▁kaluarës	-9846
▁kategori	-9847
▁katërtën	-9848
▁kernziel	-9849
▁kommunal	-9850
▁kommunik	-9851
▁konstant	-9852
▁konzepte	-9853
▁koraleve	-9854
▁krijohen	-9855
▁kryesorë	-9856
▁kufizimi	-9857
▁kujdesin	-9858
▁kullimit	-9859
▁kulturat	-9860
▁kulturor	-9861
▁kërkesën	-9862
▁këshilli	-9863
▁lebenden	-9864
▁lehtëson	-9865
▁limatike	-9866
▁madhësia	-9867
▁mbajtjen	-9868
▁mbajtjes	-9869
▁mbizotër	-9870
▁mbledhja	-9871
▁mbrojtur	-9872
▁mbrojtës	-9873
▁mbrëmjes	-9874
▁mehrheit	-9875
▁mendojmë	-9876
▁metodave	-9877
▁miliarda	-9878
▁mischung	-9879
▁mittlere	-9880
▁nachsteh	-9881
▁nachteil	-9882
▁nanotekn	-9883
▁ndikuara	-9884
▁ndodhura	-9885
▁ndërrimi	-9886
▁netzwerk	-9887
▁nevojave	-9888
▁ngjarjet	-9889
▁ngrohjen	-9890
▁nitratet	-9891
▁njerëzor	-9892
▁nordwest	-9893
▁nächsten	-9894
▁paragjyk	-9895
▁paraparë	-9896
▁pasigurt	-9897
▁pasojave	-9898
▁pasqyron	-9899
▁perdorim	-9900
▁perfluor	-9901
▁personal	-9902
▁phosphor	-9903
▁planetit	-9904
▁planifik	-9905
▁plotëson	-9906
▁pragjeve	-9907
▁prekshëm	-9908
▁presioni	-9909
▁problemi	-9910
▁problems	-9911
▁programi	-9912
▁protokol	-9913
▁pylltari	-9914
▁përafërt	-9915
▁përbërja	-9916
▁përcjell	-9917
▁përditës	-9918
▁përkatës	-9919
▁përziera	-9920
▁qeverive	-9921
▁qyteteve	-9922
▁qëllimet	-9923
▁qëllimin	-9924
▁qëndruar	-9925
▁rauchens	-9926
▁reagimit	-9927
▁redukton	-9928
▁regjener	-9929
▁regjione	-9930
▁reguesit	-9931
▁reisende	-9932
▁rigjener	-9933
▁rikthimi	-9934
▁rrjedhat	-9935
▁rrjedhën	-9936
▁russland	-9937
▁rutinore	-9938
▁sauberes	-9939
▁saunders	-9940
▁scheinen	-9941
▁schließt	-9942
▁schritte	-9943
▁shembujt	-9944
▁shkaktoj	-9945
▁shkrirja	-9946
▁shtresat	-9947
▁shtëpisë	-9948
▁situatën	-9949
▁sjelljes	-9950
▁spiegeln	-9951
▁stabilen	-9952
▁statusit	-9953
▁steigern	-9954
▁substanz	-9955
▁supozuar	-9956
▁synthese	-9957
▁systemen	-9958
▁tatimore	-9959
▁tatsache	-9960
▁tendenca	-9961
▁trafikut	-9962
▁tregtuar	-9963
▁treguesi	-9964
▁trusnitë	-9965
▁turizmit	-9966
▁tërheqës	-9967
▁udhëtimi	-9968
▁udhëzues	-9969
▁ullstein	-9970
▁umdenken	-9971
▁ungelern	-9972
▁ushqimin	-9973
▁varfëria	-9974
▁varësisë	-9975
▁vazhduar	-9976
▁vektoren	-9977
▁vendimet	-9978
▁versteht	-9979
▁versucht	-9980
▁vlefshme	-9981
▁vlerëson	-9982
▁volatile	-9983
▁vorgesch	-9984
▁vëllimit	-9985
▁vështrim	-9986
▁weiterer	-9987
▁weiträum	-9988
▁weißbuch	-9989
▁zjarreve	-9990
▁zugrunde	-9991
▁zunehmen	-9992
▁çështjen	-9993
▁ërqindja	-9994
▁übergang	-9995
▁überhöht	-9996
anagements	-9997
antwortung	-9998
ausbeutung	-9999
effiziente	-10000
eliegenden	-10001
enerregern	-10002
entsorgung	-10003
ertifikata	-10004
geschichte	-10005
gestaltung	-10006
heitlichen	-10007
jährlicher	-10008
komponente	-10009
lärmbelast	-10010
megjithatë	-10011
monitoring	-10012
ndryshimet	-10013
ochemische	-10014
ontrollreg	-10015
ontrolluar	-10016
qeverisjes	-10017
reduktions	-10018
spraktiken	-10019
ungsberein	-10020
ungssektor	-10021
ungsträger	-10022
zertifikat	-10023
zubeziehen	-10024
überträger	-10025
▁2000-2006	-10026
▁2000-2009	-10027
▁2000–2006	-10028
▁2000–2009	-10029
▁abschnitt	-10030
▁adresimin	-10031
▁adresohen	-10032
▁afatmesme	-10033
▁amtlichen	-10034
▁angazhuar	-10035
▁angegeben	-10036
▁anschließ	-10037
▁anzeichen	-10038
▁aplikimin	-10039
▁aplikimit	-10040
▁architekt	-10041
▁argumente	-10042
▁arritshme	-10043
▁aspekteve	-10044
▁aufgebaut	-10045
▁aufkommen	-10046
▁aufweisen	-10047
▁ausschlag	-10048
▁automjete	-10049
▁balancimi	-10050
▁balancuar	-10051
▁bashkimit	-10052
▁bashkëkoh	-10053
▁begrenzen	-10054
▁begriffen	-10055
▁bemerkbar	-10056
▁berechnet	-10057
▁besondere	-10058
▁besorgnis	-10059
▁bestreben	-10060
▁beständen	-10061
▁bestätigt	-10062
▁beteiligt	-10063
▁betreffen	-10064
▁beunruhig	-10065
▁binnensch	-10066
▁bregdetar	-10067
▁charakter	-10068
▁chemische	-10069
▁darstellt	-10070
▁datenlage	-10071
▁definiert	-10072
▁degraduar	-10073
▁detyrimin	-10074
▁differenz	-10075
▁dominuese	-10076
▁dyoksidin	-10077
▁efektshme	-10078
▁effektive	-10079
▁eingriffe	-10080
▁eisdecken	-10081
▁ejkalimet	-10082
▁ekuilibër	-10083
▁ekzistues	-10084
▁empfehlen	-10085
▁ergänzung	-10086
▁ernährung	-10087
▁esenciale	-10088
▁familjare	-10089
▁favorshëm	-10090
▁fokusohet	-10091
▁fruchtbar	-10092
▁fuqizimin	-10093
▁geblieben	-10094
▁gegensatz	-10095
▁geleistet	-10096
▁gemeinden	-10097
▁geschätzt	-10098
▁gestalten	-10099
▁gestattet	-10100
▁getroffen	-10101
▁gjithmonë	-10102
▁goditjeve	-10103
▁grenlandë	-10104
▁hulumtime	-10105
▁implikime	-10106
▁importimi	-10107
▁importues	-10108
▁innenraum	-10109
▁inovative	-10110
▁integrimi	-10111
▁interesat	-10112
▁interpret	-10113
▁investime	-10114
▁jährliche	-10115
▁kapazität	-10116
▁koherenca	-10117
▁kohezioni	-10118
▁komplette	-10119
▁komplexer	-10120
▁konstante	-10121
▁kontrolle	-10122
▁kreislauf	-10123
▁kripëzimi	-10124
▁kualiteti	-10125
▁kufizimin	-10126
▁kufizohet	-10127
▁kërcënime	-10128
▁langsamer	-10129
▁langsames	-10130
▁lifestyle	-10131
▁llogarive	-10132
▁logaritur	-10133
▁lulëzimin	-10134
▁lulëzojnë	-10135
▁madhësisë	-10136
▁mangësitë	-10137
▁marrëvesh	-10138
▁materieve	-10139
▁mbeturinë	-10140
▁mbrojtëse	-10141
▁menduarit	-10142
▁mesataren	-10143
▁milderung	-10144
▁mineralet	-10145
▁mirëqenia	-10146
▁mitführen	-10147
▁mundësinë	-10148
▁mundësitë	-10149
▁mundësojë	-10150
▁naturnahe	-10151
▁ndihmohen	-10152
▁ndërgjegj	-10153
▁ndërtimin	-10154
▁ndërvarur	-10155
▁nevojiten	-10156
▁nevojshëm	-10157
▁nxjerrjen	-10158
▁oberfläch	-10159
▁organizma	-10160
▁pasigurta	-10161
▁pastrimin	-10162
▁pasurimit	-10163
▁pikëpamja	-10164
▁planetarë	-10165
▁platformë	-10166
▁plotësimi	-10167
▁plotësuar	-10168
▁popullata	-10169
▁portugali	-10170
▁presionin	-10171
▁problemen	-10172
▁proceseve	-10173
▁prodhimet	-10174
▁prodhohen	-10175
▁prodhuese	-10176
▁programet	-10177
▁progresiv	-10178
▁punësimin	-10179
▁punëtorët	-10180
▁pushtetit	-10181
▁pushtuese	-10182
▁përfshijë	-10183
▁përfshira	-10184
▁përgjigje	-10185
▁përkundër	-10186
▁përmbushë	-10187
▁përmendet	-10188
▁përpunimi	-10189
▁përzierje	-10190
▁qeverisja	-10191
▁qualitäts	-10192
▁qëndrojnë	-10193
▁raportuar	-10194
▁reagieren	-10195
▁reduziert	-10196
▁reichsten	-10197
▁resultate	-10198
▁schleppen	-10199
▁schätzung	-10200
▁shkaktuar	-10201
▁shkrirjes	-10202
▁shkëmbime	-10203
▁shmangien	-10204
▁shoqërinë	-10205
▁shoqëritë	-10206
▁shoqërive	-10207
▁shtresave	-10208
▁shumëlloj	-10209
▁shërbejnë	-10210
▁sigurohet	-10211
▁sinergjia	-10212
▁sllovenia	-10213
▁standards	-10214
▁standorte	-10215
▁strahlung	-10216
▁strategji	-10217
▁struktura	-10218
▁subsidiar	-10219
▁sugjeruar	-10220
▁synergien	-10221
▁szenarien	-10222
▁technical	-10223
▁tejkalimi	-10224
▁tendencat	-10225
▁toxizität	-10226
▁turbinave	-10227
▁umweltbew	-10228
▁umweltver	-10229
▁umzugehen	-10230
▁ungefähre	-10231
▁unsichere	-10232
▁vartësinë	-10233
▁verwenden	-10234
▁verwendet	-10235
▁vorhanden	-10236
▁vëzhgimet	-10237
▁wachsende	-10238
▁waldvögel	-10239
▁weideland	-10240
▁werdenden	-10241
▁zakonisht	-10242
▁zgjedhura	-10243
▁zgjerimin	-10244
▁zinxhirin	-10245
▁zulassung	-10246
▁zuverläss	-10247
▁çështjeje	-10248
▁übergeord	-10249
.........70	-10250
beseitigung	-10251
emperaturen	-10252
environment	-10253
erneuerbare	-10254
europäische	-10255
folgerungen	-10256
internation	-10257
kapazitäten	-10258
managements	-10259
materialien	-10260
mexposition	-10261
schadstoffe	-10262
scheinungen	-10263
shfrytëzimi	-10264
ungsansätze	-10265
ungssysteme	-10266
unternehmen	-10267
verbreitete	-10268
wirtschafts	-10269
ökologische	-10270
▁..........	-10271
▁18.5.2010.	-10272
▁accounting	-10273
▁ackerböden	-10274
▁angazhohen	-10275
▁angestellt	-10276
▁anzumerken	-10277
▁aquakultur	-10278
▁aquatische	-10279
▁asgjësimin	-10280
▁atmosphäre	-10281
▁atribuohet	-10282
▁ausgegeben	-10283
▁ausgewogen	-10284
▁auswirkung	-10285
▁autorinnen	-10286
▁balancimin	-10287
▁baugewerbe	-10288
▁bedeutende	-10289
▁begünstigt	-10290
▁beinhalten	-10291
▁beinhaltet	-10292
▁beispielen	-10293
▁betreffend	-10294
▁bewältigen	-10295
▁bioenergji	-10296
▁biologisch	-10297
▁dagewesene	-10298
▁definition	-10299
▁dimensione	-10300
▁diskussion	-10301
▁dramatisch	-10302
▁effiziente	-10303
▁effiçiente	-10304
▁eingestuft	-10305
▁einleitung	-10306
▁einwohnern	-10307
▁ekosistemi	-10308
▁ekspozimet	-10309
▁ekstensive	-10310
▁ekuivalent	-10311
▁elektronik	-10312
▁elektround	-10313
▁elementeve	-10314
▁emissionsh	-10315
▁emissionsm	-10316
▁engagement	-10317
▁entsalzung	-10318
▁entwaldung	-10319
▁ermöglicht	-10320
▁ernährungs	-10321
▁errichtung	-10322
▁erstellung	-10323
▁evropianët	-10324
▁extensiver	-10325
▁forschungs	-10326
▁fortsetzen	-10327
▁fotprintit	-10328
▁gefährdete	-10329
▁gegenstand	-10330
▁generation	-10331
▁geringerer	-10332
▁gesamtzahl	-10333
▁geschätzte	-10334
▁groenlanda	-10335
▁hapësinore	-10336
▁haupttypen	-10337
▁hersteller	-10338
▁häufigkeit	-10339
▁höhepunkte	-10340
▁importiert	-10341
▁industrial	-10342
▁industrinë	-10343
▁industrisë	-10344
▁informatat	-10345
▁integrimit	-10346
▁intensitet	-10347
▁intensität	-10348
▁intensiven	-10349
▁interesave	-10350
▁investiert	-10351
▁inzwischen	-10352
▁irreversib	-10353
▁jährlicher	-10354
▁karburante	-10355
▁kategoritë	-10356
▁kategorive	-10357
▁klorofluor	-10358
▁kombiniert	-10359
▁komponentë	-10360
▁komunikatë	-10361
▁komunitete	-10362
▁konsumojmë	-10363
▁kontributi	-10364
▁koordinuar	-10365
▁kulturelle	-10366
▁kumulative	-10367
▁kërcënojnë	-10368
▁llogariten	-10369
▁maqedonisë	-10370
▁mbretërisë	-10371
▁mbështeten	-10372
▁mbështetja	-10373
▁mekanizmat	-10374
▁menaxhohen	-10375
▁menaxhojmë	-10376
▁mikrometer	-10377
▁mikrometra	-10378
▁millennium	-10379
▁minimizuar	-10380
▁mitgliedsl	-10381
▁mitteilung	-10382
▁monitorimi	-10383
▁ndërhyrjet	-10384
▁ndërmarrja	-10385
▁ndërmerren	-10386
▁nganjëherë	-10387
▁nxehtësisë	-10388
▁nördlichen	-10389
▁objektivin	-10390
▁offensicht	-10391
▁oksigjenit	-10392
▁organische	-10393
▁parashikon	-10394
▁parlamenti	-10395
▁pasigurisë	-10396
▁pasigurive	-10397
▁pasqyrojnë	-10398
▁persistent	-10399
▁physischen	-10400
▁plotësuese	-10401
▁popullsinë	-10402
▁populluara	-10403
▁prioritete	-10404
▁prioritäre	-10405
▁production	-10406
▁promovimin	-10407
▁punëtorëve	-10408
▁pyetësorin	-10409
▁pylltarinë	-10410
▁përcaktimi	-10411
▁përcaktuar	-10412
▁përfitojnë	-10413
▁përfshihen	-10414
▁përgatitur	-10415
▁përgjigjes	-10416
▁përgjigjet	-10417
▁përgjigjja	-10418
▁përgjigjur	-10419
▁përhershme	-10420
▁përjetojnë	-10421
▁përkeqësoj	-10422
▁përkohshëm	-10423
▁përmbushur	-10424
▁përmirësim	-10425
▁përparimin	-10426
▁përparimit	-10427
▁përqindjet	-10428
▁përsëritur	-10429
▁përzierjet	-10430
▁qeveritare	-10431
▁reduktojnë	-10432
▁regierungs	-10433
▁regionalen	-10434
▁regionaler	-10435
▁rekreacion	-10436
▁restlichen	-10437
▁riciklimin	-10438
▁ristruktur	-10439
▁rosendahls	-10440
▁rrezatimit	-10441
▁rrezikuara	-10442
▁rrënjësore	-10443
▁saisonalen	-10444
▁schlechten	-10445
▁schließung	-10446
▁schottland	-10447
▁schädlings	-10448
▁seeverkehr	-10449
▁sektoraler	-10450
▁shkaktohen	-10451
▁shkripëzim	-10452
▁shoqëruese	-10453
▁shqyrtimin	-10454
▁sipërfaqet	-10455
▁sorgfältig	-10456
▁speziellen	-10457
▁strukturat	-10458
▁substanzen	-10459
▁tierischer	-10460
▁udhëzimeve	-10461
▁umgebungen	-10462
▁unkontroll	-10463
▁varfërimin	-10464
▁vazhdimësi	-10465
▁vendbanime	-10466
▁vendimmarr	-10467
▁verabschie	-10468
▁verfahrens	-10469
▁vergleicht	-10470
▁verhaltens	-10471
▁versalzung	-10472
▁versorgung	-10473
▁verstanden	-10474
▁verwertete	-10475
▁veterinärk	-10476
▁vielfaches	-10477
▁vlerësohet	-10478
▁vogelarten	-10479
▁vorgesehen	-10480
▁vorschläge	-10481
▁wanderungs	-10482
▁wohlstands	-10483
▁zeitreihen	-10484
▁zhvendoset	-10485
▁zhvendosja	-10486
▁zhvendosur	-10487
▁zugenommen	-10488
▁zugänglich	-10489
▁überdenken	-10490
▁überlegung	-10491
abhängigkeit	-10492
anreicherung	-10493
aufbereitung	-10494
bilanzierung	-10495
bodenerosion	-10496
finanzierten	-10497
gesellschaft	-10498
jetëgjatësia	-10499
orientierten	-10500
schutzmittel	-10501
ungsprozesse	-10502
verbrauchern	-10503
versiegelung	-10504
verständlich	-10505
zielvorgaben	-10506
ökonomischen	-10507
▁14001:2004—	-10508
▁abschaffung	-10509
▁acidifikues	-10510
▁aktionsplan	-10511
▁aquatischer	-10512
▁artificiale	-10513
▁ausbreitung	-10514
▁ausgebeutet	-10515
▁ausgenommen	-10516
▁bedrohungen	-10517
▁behinderung	-10518
▁beispiellos	-10519
▁beobachtete	-10520
▁beobachtung	-10521
▁beschränken	-10522
▁beteiligung	-10523
▁certifikata	-10524
▁dargestellt	-10525
▁depozitimin	-10526
▁dienstleist	-10527
▁direktivave	-10528
▁durchmesser	-10529
▁effizienten	-10530
▁eingegangen	-10531
▁eisschildes	-10532
▁ekosistemin	-10533
▁eksploatuar	-10534
▁eksportuara	-10535
▁erarbeitung	-10536
▁evropianëve	-10537
▁fortgesetzt	-10538
▁fragmentimi	-10539
▁freisetzung	-10540
▁fundshënime	-10541
▁gemeinsamer	-10542
▁generierten	-10543
▁geschätzten	-10544
▁gjelbërimin	-10545
▁globalizimi	-10546
▁gradualisht	-10547
▁hollësishme	-10548
▁inkurajuese	-10549
▁innovations	-10550
▁intensivere	-10551
▁investieren	-10552
▁investimeve	-10553
▁kapacitetit	-10554
▁kapazitäten	-10555
▁kernstädten	-10556
▁klimatische	-10557
▁kombination	-10558
▁komunikimit	-10559
▁komunitetet	-10560
▁konservimit	-10561
▁konsideruar	-10562
▁kontaminimi	-10563
▁kontributit	-10564
▁kontrolleve	-10565
▁kulturellen	-10566
▁königreichs	-10567
▁luftverkehr	-10568
▁marrëdhënie	-10569
▁materialein	-10570
▁materieller	-10571
▁maßgebliche	-10572
▁mbështetjes	-10573
▁mechanismen	-10574
▁mekanizmave	-10575
▁mirëmbajtja	-10576
▁mirënjohjet	-10577
▁mittelpunkt	-10578
▁monitoruese	-10579
▁mëtutjeshëm	-10580
▁ndërthurura	-10581
▁netherlands	-10582
▁nënkuptojnë	-10583
▁organizatës	-10584
▁organizmave	-10585
▁pabarabartë	-10586
▁pafavorshme	-10587
▁parakohshme	-10588
▁pasagjerëve	-10589
▁potencialit	-10590
▁praktischen	-10591
▁prodhimtari	-10592
▁protokollit	-10593
▁përcaktojnë	-10594
▁përdoruesit	-10595
▁përdoruesve	-10596
▁përfundimin	-10597
▁përjashtuar	-10598
▁përkundrazi	-10599
▁përmbushjen	-10600
▁përpjekjeve	-10601
▁përqendruar	-10602
▁përshkruara	-10603
▁përvetësimi	-10604
▁qarkullimin	-10605
▁quecksilber	-10606
▁reduktimeve	-10607
▁reduzierten	-10608
▁regjistrimi	-10609
▁regjistruar	-10610
▁regulierung	-10611
▁respiratore	-10612
▁resultieren	-10613
▁richtlinien	-10614
▁rregullator	-10615
▁rregullimit	-10616
▁rrënjësisht	-10617
▁rückläufige	-10618
▁shkarkimeve	-10619
▁shkatërrimi	-10620
▁shkëmbinjve	-10621
▁shpyllëzimi	-10622
▁shpërndarje	-10623
▁shqetësuese	-10624
▁sipërfaqeve	-10625
▁sistematike	-10626
▁spartenüber	-10627
▁spezifische	-10628
▁staatlichen	-10629
▁steuerliche	-10630
▁strategjike	-10631
▁strukturave	-10632
▁subvencione	-10633
▁tierseuchen	-10634
▁triebkräfte	-10635
▁umweltthema	-10636
▁ungenutzten	-10637
▁untermauern	-10638
▁unternommen	-10639
▁urgjentisht	-10640
▁vegetations	-10641
▁vendbanimet	-10642
▁verbringung	-10643
▁verheerende	-10644
▁verschärfen	-10645
▁verteilungs	-10646
▁verursachte	-10647
▁vlerësimeve	-10648
▁vollständig	-10649
▁vorrangigen	-10650
▁wassermenge	-10651
▁westantarkt	-10652
▁windenergie	-10653
▁wohlergehen	-10654
▁zeitspannen	-10655
▁zugängliche	-10656
▁überschreit	-10657
▁übersteigen	-10658
▁übertragung	-10659
aktionsprogra	-10660
effizienteren	-10661
gebietsnetzes	-10662
gesamtgewicht	-10663
stemperaturen	-10664
terminologjia	-10665
verfügbarkeit	-10666
▁abfallströme	-10667
▁abstraksioni	-10668
▁abzuschätzen	-10669
▁alltäglichen	-10670
▁ansteckenden	-10671
▁arzneimittel	-10672
▁ausarbeitung	-10673
▁ausgerichtet	-10674
▁ausgewählten	-10675
▁ausreichende	-10676
▁balkanländer	-10677
▁bedeutendste	-10678
▁benachbarten	-10679
▁berechnungen	-10680
▁bestimmungen	-10681
▁beträchtlich	-10682
▁bewässerungs	-10683
▁brennstoffen	-10684
▁diskussionen	-10685
▁diversitetit	-10686
▁diverzitetit	-10687
▁durchsetzung	-10688
▁efikasitetin	-10689
▁einbeziehung	-10690
▁eingesetzten	-10691
▁einzelhandel	-10692
▁eisbedeckung	-10693
▁entscheidend	-10694
▁entwässerung	-10695
▁erderwärmung	-10696
▁erfolgreiche	-10697
▁erkrankungen	-10698
▁erschöpfende	-10699
▁faserstoffen	-10700
▁feuchtigkeit	-10701
▁flusseinzugs	-10702
▁fortschritts	-10703
▁fragmentimit	-10704
▁frymëmarrjes	-10705
▁funksionimit	-10706
▁gefährlicher	-10707
▁geografische	-10708
▁gesamtkosten	-10709
▁identifikimi	-10710
▁importierter	-10711
▁industrielle	-10712
▁informacione	-10713
▁instabilität	-10714
▁intelektuale	-10715
▁jahreszeiten	-10716
▁kanalizimeve	-10717
▁kippelemente	-10718
▁kohlendioxid	-10719
▁kombinierten	-10720
▁koncentrimet	-10721
▁konkluzionet	-10722
▁konkurrieren	-10723
▁konsequenzen	-10724
▁konsumgütern	-10725
▁koordinierte	-10726
▁korrespondon	-10727
▁këndvështrim	-10728
▁landnutzungs	-10729
▁llogaritjeve	-10730
▁marrëdhëniet	-10731
▁meeresumwelt	-10732
▁menschlicher	-10733
▁meridionalen	-10734
▁mikroorganiz	-10735
▁nettozuwachs	-10736
▁pajtueshmëri	-10737
▁parashikuara	-10738
▁persönlichen	-10739
▁pjesëmarrjen	-10740
▁produziertes	-10741
▁proporcionin	-10742
▁prozentualer	-10743
▁përfaqësojnë	-10744
▁përgjegjësia	-10745
▁përmbledhëse	-10746
▁përmirësimit	-10747
▁përqendrohet	-10748
▁përshpejtuar	-10749
▁realizueshme	-10750
▁referenzwert	-10751
▁shkatërrimit	-10752
▁shkatërruese	-10753
▁shpërndarëse	-10754
▁sozialmedien	-10755
▁stabilitetin	-10756
▁statistikore	-10757
▁steuerreform	-10758
▁substanciale	-10759
▁systemischer	-10760
▁tatsächliche	-10761
▁teknologjinë	-10762
▁temperaturat	-10763
▁transferimit	-10764
▁tranzicionet	-10765
▁triebkräften	-10766
▁umfassendere	-10767
▁unerlässlich	-10768
▁untersuchten	-10769
▁vendbanimeve	-10770
▁veprimtarive	-10771
▁verbrauchern	-10772
▁verdeutlicht	-10773
▁verhinderung	-10774
▁versauerungs	-10775
▁verschärfung	-10776
▁vollständige	-10777
▁vorzustellen	-10778
▁wasserquelle	-10779
▁weideflächen	-10780
▁wirtschaftsm	-10781
▁zusammenhalt	-10782
▁zusätzlichen	-10783
▁zwischenzeit	-10784
▁zëvendësohet	-10785
▁öffentlichen	-10786
▁ökonomischen	-10787
..............	-10788
einschließlich	-10789
landwirtschaft	-10790
verschiebungen	-10791
▁.............	-10792
▁alternativave	-10793
▁anforderungen	-10794
▁appropriation	-10795
▁arbeitskräfte	-10796
▁artenzusammen	-10797
▁ausgerichtete	-10798
▁bemerkenswert	-10799
▁beobachtungen	-10800
▁beschleunigte	-10801
▁beschriebenen	-10802
▁beträchtliche	-10803
▁biologjikisht	-10804
▁einschränkung	-10805
▁entsprechende	-10806
▁entwässerungs	-10807
▁ersatzstoffen	-10808
▁erwähnenswert	-10809
▁fortschritten	-10810
▁fundamentalen	-10811
▁gebietsfremde	-10812
▁gegenwärtigen	-10813
▁geografischen	-10814
▁gesamtvolumen	-10815
▁gewährleisten	-10816
▁griechenlands	-10817
▁handelsbilanz	-10818
▁hidrocentrale	-10819
▁holzeinschlag	-10820
▁identifikimit	-10821
▁identifiziert	-10822
▁implementimit	-10823
▁infolgedessen	-10824
▁informacionet	-10825
▁informacionin	-10826
▁institucionet	-10827
▁international	-10828
▁karakterizuar	-10829
▁klimaschutzes	-10830
▁kontaminierte	-10831
▁konvencionale	-10832
▁konzentrieren	-10833
▁konzentrierte	-10834
▁korallenriffe	-10835
▁küstengebiete	-10836
▁manifestieren	-10837
▁metodologjike	-10838
▁multifunktion	-10839
▁naturkapitals	-10840
▁offenliegende	-10841
▁pakontrolluar	-10842
▁pakualifikuar	-10843
▁paqëndrueshme	-10844
▁pflanzenarten	-10845
▁pharmazeutika	-10846
▁potencialisht	-10847
▁përgjegjësisë	-10848
▁përmirësimeve	-10849
▁regenerations	-10850
▁registrierung	-10851
▁schmelzwasser	-10852
▁schwermetalle	-10853
▁signifikanten	-10854
▁steuersysteme	-10855
▁subvencioneve	-10856
▁säurebildende	-10857
▁tatsächlichen	-10858
▁traditionelle	-10859
▁tragfähigkeit	-10860
▁transformimin	-10861
▁tschechischen	-10862
▁umweltagentur	-10863
▁umweltbereich	-10864
▁umweltkapital	-10865
▁unmittelbaren	-10866
▁untereinander	-10867
▁unterscheidet	-10868
▁vegjetacionit	-10869
▁verarbeitende	-10870
▁verknüpfungen	-10871
▁verschiedener	-10872
▁vollständigen	-10873
▁vorgeschlagen	-10874
▁wissenslücken	-10875
▁zielsetzungen	-10876
▁zurückblicken	-10877
▁zurückgeführt	-10878
▁zëvendësuesit	-10879
lebenserwartung	-10880
lärmbelastungen	-10881
mitgliedstaaten	-10882
ophysikalischen	-10883
stoffemissionen	-10884
▁ackerlandvögel	-10885
▁altersstruktur	-10886
▁aufmerksamkeit	-10887
▁ballungsräumen	-10888
▁benachteiligte	-10889
▁beschleunigung	-10890
▁biokraftstoffe	-10891
▁bleiexposition	-10892
▁dhjetëvjeçarit	-10893
▁durchgeführten	-10894
▁einschätzungen	-10895
▁ekotoksiciteti	-10896
▁emissionsreduz	-10897
▁entgegenwirken	-10898
▁entscheidungen	-10899
▁feuchtgebieten	-10900
▁fragmentierung	-10901
▁geopolitischen	-10902
▁gesamtrechnung	-10903
▁grönländischen	-10904
▁harmonisierten	-10905
▁hidrocentralet	-10906
▁infrastruktura	-10907
▁intensifikimin	-10908
▁interventionen	-10909
▁kooperierenden	-10910
▁legjislacionin	-10911
▁multinationale	-10912
▁phytoplanktons	-10913
▁produktivitäts	-10914
▁regulatorische	-10915
▁schmetterlings	-10916
▁schwachstellen	-10917
▁schwefeldioxid	-10918
▁schwellenwerte	-10919
▁sichergestellt	-10920
▁sicherstellung	-10921
▁umweltbelangen	-10922
▁umweltbezogene	-10923
▁umweltqualität	-10924
▁umweltzustands	-10925
▁verkehrssektor	-10926
▁verkehrssystem	-10927
▁verschiebungen	-10928
▁vorherrschende	-10929
▁wirtschaftszwe	-10930
▁wärmeerzeugung	-10931
▁zusammenhängen	-10932
ausbeutungsindex	-10933
fassungsbereichs	-10934
▁abfallerzeugung	-10935
▁administrativen	-10936
▁ausschlaggebend	-10937
▁belastbarkeiten	-10938
▁bergbauprodukte	-10939
▁bodenressourcen	-10940
▁demographischen	-10941
▁diesbezüglicher	-10942
▁dürreereignisse	-10943
▁einflussbereich	-10944
▁eingeschränkter	-10945
▁empfindlichkeit	-10946
▁energiepflanzen	-10947
▁gebirgsregionen	-10948
▁kardiovaskulare	-10949
▁klorofluorokarb	-10950
▁konsumwachstums	-10951
▁kontinuierliche	-10952
▁laicherbiomasse	-10953
▁lebensraumtypen	-10954
▁luftreinhaltung	-10955
▁nachbarregionen	-10956
▁pamjaftueshmëri	-10957
▁schwerwiegender	-10958
▁shkretëtirëzimi	-10959
▁synthesebericht	-10960
▁umweltbedingten	-10961
▁umweltbundesamt	-10962
▁umweltproblemen	-10963
▁unbeabsichtigte	-10964
▁veriperëndimore	-10965
▁verkehrspolitik	-10966
▁verschiedenster	-10967
▁versorgungsnetz	-10968
▁wasserkreislauf	-10969
▁wissenschaftler	-10970
▁zusammenführung	-10971
▁ökosystemkonten	-10972
übt	-10973
–6%	-10974
„(3	-10975
-0,8	-10976
-32,	-10977
-4,0	-10978
.145	-10979
1700	-10980
comp	-10981
hkuj	-10982
ießt	-10983
lizh	-10984
poly	-10985
rebt	-10986
somo	-10987
turb	-10988
ykut	-10989
▁22.	-10990
▁23.	-10991
▁27,	-10992
▁296	-10993
▁3%;	-10994
▁363	-10995
▁3–5	-10996
▁6,8	-10997
▁64%	-10998
▁81%	-10999
▁ähn	-11000
▁äst	-11001
▁ölp	-11002
,2009	-11003
-2099	-11004
/2005	-11005
1005,	-11006
apsit	-11007
aupte	-11008
faqos	-11009
fizit	-11010
fuqia	-11011
gespe	-11012
glizh	-11013
hyesh	-11014
ibler	-11015
jatht	-11016
jonet	-11017
kennt	-11018
ktheu	-11019
löser	-11020
marit	-11021
mögen	-11022
nahmt	-11023
odhte	-11024
ozone	-11025
paket	-11026
pegel	-11027
prica	-11028
putit	-11029
pässe	-11030
shërb	-11031
smëri	-11032
turiz	-11033
uidel	-11034
vakia	-11035
venia	-11036
visër	-11037
vrare	-11038
wächt	-11039
önnte	-11040
▁(0-2	-11041
▁(197	-11042
▁(73)	-11043
▁(?)7	-11044
▁..13	-11045
▁0,59	-11046
▁110%	-11047
▁17%.	-11048
▁17%;	-11049
▁35%;	-11050
▁cafe	-11051
▁dato	-11052
▁djat	-11053
▁edel	-11054
▁erlä	-11055
▁fels	-11056
▁flot	-11057
▁fryt	-11058
▁gjak	-11059
▁ikëp	-11060
▁incl	-11061
▁load	-11062
▁mijë	-11063
▁mire	-11064
▁nähe	-11065
▁ombr	-11066
▁omun	-11067
▁rosa	-11068
▁ruse	-11069
▁tref	-11070
,2009.	-11071
-2008,	-11072
-2010,	-11073
/2005/	-11074
/2007,	-11075
abbaus	-11076
alitik	-11077
armues	-11078
cedent	-11079
ckenen	-11080
dargeb	-11081
debene	-11082
delung	-11083
djatht	-11084
dollar	-11085
drückt	-11086
efonat	-11087
efonen	-11088
eliose	-11089
elokal	-11090
elseit	-11091
erufen	-11092
eshkuj	-11093
fizike	-11094
gelegt	-11095
gewirb	-11096
ginale	-11097
global	-11098
htejni	-11099
icksal	-11100
iforme	-11101
intell	-11102
kimike	-11103
körper	-11104
messst	-11105
niveli	-11106
oniumi	-11107
orreve	-11108
orusia	-11109
ositje	-11110
owaste	-11111
pegeln	-11112
pertal	-11113
pässen	-11114
realit	-11115
rfaqos	-11116
rritja	-11117
salind	-11118
single	-11119
spanne	-11120
terkar	-11121
unahme	-11122
vjeçar	-11123
volles	-11124
xibler	-11125
▁(10).	-11126
▁(12);	-11127
▁(2–6%	-11128
▁(62),	-11129
▁(?)7.	-11130
▁....1	-11131
▁....3	-11132
▁...42	-11133
▁..134	-11134
▁0,75%	-11135
▁1962,	-11136
▁1970,	-11137
▁350-4	-11138
▁aedhe	-11139
▁akujt	-11140
▁angli	-11141
▁blüte	-11142
▁borës	-11143
▁bëjmë	-11144
▁chron	-11145
▁dallg	-11146
▁erlau	-11147
▁fibër	-11148
▁fließ	-11149
▁gebäu	-11150
▁gewäh	-11151
▁heqja	-11152
▁horiz	-11153
▁hotel	-11154
▁ikëpy	-11155
▁kennt	-11156
▁kulot	-11157
▁këndi	-11158
▁mjete	-11159
▁mushk	-11160
▁mëpos	-11161
▁neunz	-11162
▁näher	-11163
▁ofroj	-11164
▁prapa	-11165
▁radon	-11166
▁sakta	-11167
▁saktë	-11168
▁satel	-11169
▁shfaq	-11170
▁shfuq	-11171
▁shiun	-11172
▁skoci	-11173
▁ujera	-11174
▁vërej	-11175
▁übung	-11176
...121(	-11177
ability	-11178
affenen	-11179
agkräft	-11180
agnahmt	-11181
allkani	-11182
amerika	-11183
ankiere	-11184
atisjes	-11185
atyrore	-11186
aufbaus	-11187
auptein	-11188
branche	-11189
chancen	-11190
chlorin	-11191
compost	-11192
endschw	-11193
ergjike	-11194
erienca	-11195
extreme	-11196
ffshore	-11197
gelegte	-11198
gitimit	-11199
-2006-	-11200
▁freiw	-11201
▁nafta	-11202
▁termo	-11203
dienste	-11204
grisiko	-11205
größert	-11206
grünere	-11207
hauptzu	-11208
humiden	-11209
hyeshme	-11210
ianteve	-11211
ikistan	-11212
indeksi	-11213
jetorit	-11214
kimikat	-11215
kthehen	-11216
maritim	-11217
mendimi	-11218
meshkuj	-11219
monoxid	-11220
ogistik	-11221
oletten	-11222
oletter	-11223
qeverit	-11224
rajonet	-11225
rasterz	-11226
reliose	-11227
schulen	-11228
shënuar	-11229
studien	-11230
tragene	-11231
tregtar	-11232
tretend	-11233
turizmi	-11234
ushqimi	-11235
utkrebs	-11236
verscho	-11237
vizioni	-11238
vjeçare	-11239
vollere	-11240
vollzie	-11241
vorgabe	-11242
vorgäng	-11243
weichen	-11244
werdenk	-11245
zegespe	-11246
öhnlich	-11247
▁(14)),	-11248
▁(24%),	-11249
▁....37	-11250
▁...117	-11251
▁000235	-11252
▁100140	-11253
▁50–100	-11254
▁abschw	-11255
▁ajrore	-11256
▁akteur	-11257
▁alpine	-11258
▁anzune	-11259
▁arsimi	-11260
▁atypër	-11261
▁ausübt	-11262
▁bebaut	-11263
▁beruht	-11264
▁biskay	-11265
▁blloku	-11266
▁blüten	-11267
▁bollëk	-11268
▁bringt	-11269
▁consum	-11270
▁diabet	-11271
▁dienen	-11272
▁dollar	-11273
▁dëshmi	-11274
▁einmal	-11275
▁eintre	-11276
▁erlaub	-11277
▁etiket	-11278
▁expliz	-11279
▁fertig	-11280
▁figurë	-11281
▁flugre	-11282
▁flugro	-11283
▁fluksi	-11284
▁forumi	-11285
▁ftohje	-11286
▁gegend	-11287
▁heqjes	-11288
▁hotels	-11289
▁kampan	-11290
▁kardif	-11291
▁keiner	-11292
▁keines	-11293
▁kishin	-11294
▁korpor	-11295
▁kripës	-11296
▁krizat	-11297
▁lagëta	-11298
▁largim	-11299
▁dëb	-11300
(2010	-11301
dauer	-11302
hanpp	-11303
▁25%;	-11304
▁humë	-11305
alatet	-11306
alkani	-11307
anfang	-11308
legene	-11309
ltaria	-11310
pandem	-11311
qijave	-11312
▁2004,	-11313
▁2004–	-11314
▁ilust	-11315
▁kolap	-11316
▁lagje	-11317
▁motin	-11318
▁motit	-11319
▁rural	-11320
▁toxik	-11321
▁vënia	-11322
balkani	-11323
fassend	-11324
shirëse	-11325
wärtstr	-11326
▁afrika	-11327
▁anergj	-11328
▁astmën	-11329
▁detaje	-11330
▁dëborë	-11331
▁lagsht	-11332
▁latine	-11333
▁lejuar	-11334
▁liqene	-11335
▁llumit	-11336
▁mbikal	-11337
▁migrat	-11338
▁moldaw	-11339
▁ndahet	-11340
▁nennen	-11341
▁ngrira	-11342
▁nähert	-11343
▁paketa	-11344
▁paligj	-11345
▁plehut	-11346
▁polyzy	-11347
▁pritej	-11348
▁proced	-11349
▁pronës	-11350
▁qendra	-11351
▁qindra	-11352
▁redakt	-11353
▁rishik	-11354
▁routin	-11355
▁satell	-11356
▁sferën	-11357
▁sferës	-11358
▁shndër	-11359
▁sillen	-11360
▁single	-11361
▁sorgen	-11362
▁staats	-11363
▁sëmurë	-11364
▁tabelë	-11365
▁trashë	-11366
▁tregoi	-11367
▁tërheq	-11368
▁veturë	-11369
▁vijues	-11370
▁warnte	-11371
▁weight	-11372
▁wetter	-11373
▁worden	-11374
▁zecken	-11375
▁zersie	-11376
▁zunahm	-11377
▁zyrtar	-11378
▁ästhet	-11379
▁ölpest	-11380
▁übrige	-11381
......13	-11382
.....121	-11383
ansätzen	-11384
artësitë	-11385
auslöser	-11386
ballkani	-11387
behörden	-11388
bewohner	-11389
biowaste	-11390
cherzeug	-11391
chlossen	-11392
cocktail	-11393
dargebot	-11394
entesten	-11395
erogjene	-11396
eurostat	-11397
ferencën	-11398
gebogens	-11399
.27	-11400
.31	-11401
cfc	-11402
–2%	-11403
005)	-11404
cfcs	-11405
ezif	-11406
itzt	-11407
qeri	-11408
qija	-11409
▁1.2	-11410
▁2.2	-11411
▁3,8	-11412
▁4,0	-11413
▁62%	-11414
▁69%	-11415
▁72%	-11416
▁8%;	-11417
▁8.2	-11418
▁cek	-11419
abrik	-11420
aceut	-11421
ahara	-11422
poten	-11423
razil	-11424
rifft	-11425
ëqija	-11426
▁(35)	-11427
▁(45)	-11428
▁edit	-11429
▁fshe	-11430
....31	-11431
fabrik	-11432
indeut	-11433
izajni	-11434
maceut	-11435
matrik	-11436
monium	-11437
razili	-11438
spezif	-11439
▁(0–2%	-11440
▁(29),	-11441
▁1850,	-11442
▁agreg	-11443
▁cekët	-11444
▁fsheh	-11445
▁kriza	-11446
▁njëra	-11447
▁unece	-11448
▁zbraz	-11449
zugriff	-11450
▁(2005)	-11451
▁agjenc	-11452
▁korrik	-11453
▁këqija	-11454
▁papara	-11455
▁përdit	-11456
▁sahara	-11457
elorusia	-11458
fabrikën	-11459
gebracht	-11460
haltbare	-11461
iecockta	-11462
igacioni	-11463
illgeleg	-11464
ilometer	-11465
indeutet	-11466
ioletter	-11467
itelseit	-11468
ivalente	-11469
kenntnis	-11470
kräftigt	-11471
këqijave	-11472
lebenden	-11473
licheint	-11474
lomerate	-11475
lösungen	-11476
mmlichen	-11477
natyrore	-11478
objektiv	-11479
ological	-11480
olucioni	-11481
orinuara	-11482
otacioni	-11483
personal	-11484
prodhimi	-11485
programm	-11486
rfaqosja	-11487
rückhalt	-11488
salindur	-11489
schlägen	-11490
schätzen	-11491
selektiv	-11492
sorption	-11493
spiegeln	-11494
ungslärm	-11495
uppertal	-11496
ustausch	-11497
visëritë	-11498
volumens	-11499
▁joint	-11500
annahme	-11501
zmitteln	-11502
zugleich	-11503
▁....113	-11504
▁0,18-0,	-11505
▁1,8-4,0	-11506
▁350-400	-11507
▁aglomer	-11508
▁aktions	-11509
▁alpinen	-11510
▁amerika	-11511
▁anfangs	-11512
▁arrinte	-11513
▁aufbaut	-11514
▁aufgabe	-11515
▁bekämpf	-11516
▁beruhen	-11517
▁besitzt	-11518
▁bipheny	-11519
▁biskaya	-11520
▁bürgern	-11521
▁chancen	-11522
▁dallgët	-11523
▁deichen	-11524
▁diferen	-11525
▁dinamik	-11526
▁dizajni	-11527
▁djathtë	-11528
▁drenazh	-11529
▁drenimi	-11530
▁edelmet	-11531
▁einseit	-11532
▁erdbeob	-11533
▁erkennt	-11534
▁erlaubt	-11535
▁ernstha	-11536
▁erstmal	-11537
▁etiketa	-11538
▁felsige	-11539
▁figurës	-11540
▁fillest	-11541
▁fillimi	-11542
▁flotten	-11543
▁fosfori	-11544
▁frenave	-11545
▁frühsom	-11546
▁garanci	-11547
▁gjencia	-11548
▁gjinisë	-11549
▁gjinive	-11550
▁herbeif	-11551
▁hervorg	-11552
▁hotelet	-11553
▁ikëpyet	-11554
▁imponon	-11555
▁indeksi	-11556
▁inhalts	-11557
▁inputit	-11558
▁irgendw	-11559
▁izoluar	-11560
▁jenseit	-11561
▁jugosll	-11562
▁kleinen	-11563
▁konkret	-11564
▁krebser	-11565
▁krizave	-11566
▁kulotat	-11567
▁kënetat	-11568
▁lagësht	-11569
▁largëta	-11570
▁lentave	-11571
▁livadhe	-11572
▁lëvrimi	-11573
▁mediume	-11574
▁meshkuj	-11575
▁metanit	-11576
▁moderne	-11577
▁motorët	-11578
▁ndeshet	-11579
▁neunzig	-11580
▁njeriun	-11581
▁nährsto	-11582
▁nëntëdh	-11583
▁ombrell	-11584
▁paripër	-11585
▁patente	-11586
▁pengesë	-11587
▁pikënis	-11588
▁poshtme	-11589
▁prapave	-11590
▁prezent	-11591
▁prishin	-11592
▁profile	-11593
▁präsenz	-11594
▁radonex	-11595
▁radonit	-11596
▁revolut	-11597
▁riprodh	-11598
▁secilën	-11599
afaq	-11600
▁erwäg	-11601
▁fatin	-11602
▁nächt	-11603
▁vetëd	-11604
anteils	-11605
nichtet	-11606
▁akullt	-11607
▁diffus	-11608
▁flussb	-11609
▁pajtim	-11610
▁papërf	-11611
▁preisf	-11612
▁preisw	-11613
▁stören	-11614
afaqohen	-11615
bskräfte	-11616
missions	-11617
▁hollësi	-11618
▁ndjekur	-11619
▁nächste	-11620
▁përvoja	-11621
▁sheqeri	-11622
▁shifrat	-11623
▁shndërr	-11624
▁shtrira	-11625
▁shtruar	-11626
▁sioneve	-11627
▁sipërme	-11628
▁spürbar	-11629
▁stellte	-11630
▁steroid	-11631
▁stimulo	-11632
▁streben	-11633
▁tiefere	-11634
▁toksike	-11635
▁trashëg	-11636
▁triebfe	-11637
▁ukraina	-11638
▁ukraine	-11639
▁ultravj	-11640
▁vetëdij	-11641
▁vijuese	-11642
▁vullkan	-11643
▁wandern	-11644
▁willkür	-11645
▁wärmeab	-11646
▁zbrazja	-11647
▁zgjatet	-11648
▁zinxhir	-11649
▁zweifel	-11650
▁zweimal	-11651
▁zyrtare	-11652
(2010)235	-11653
abhängige	-11654
akultures	-11655
anhaltige	-11656
aufgewirb	-11657
berechnet	-11658
berfläche	-11659
biodiverz	-11660
cbeschrän	-11661
dargebots	-11662
deszunehm	-11663
ekologjik	-11664
elbildung	-11665
emessenen	-11666
engpässen	-11667
enleitung	-11668
etterling	-11669
footprint	-11670
gemeinden	-11671
gesetzgeb	-11672
gitimität	-11673
ingstelle	-11674
istwerden	-11675
itelseite	-11676
izajnimin	-11677
izipative	-11678
jëhershme	-11679
kennzeich	-11680
leichtert	-11681
lässigtes	-11682
maceutike	-11683
maritimes	-11684
matriksen	-11685
ommission	-11686
opolitike	-11687
orreliose	-11688
potenzial	-11689
schöpfung	-11690
shatisjes	-11691
shekullit	-11692
shërbimet	-11693
sicitetin	-11694
sperioden	-11695
szenarien	-11696
tourismus	-11697
ushqimore	-11698
ustrisiko	-11699
dari	-11700
innt	-11701
abwär	-11702
basis	-11703
üchte	-11704
▁mono	-11705
▁vjeç	-11706
ajdari	-11707
akumul	-11708
ariati	-11709
deihen	-11710
milion	-11711
ëzakon	-11712
▁ergrü	-11713
▁gabim	-11714
▁klasa	-11715
▁monet	-11716
abwärts	-11717
anreize	-11718
buchert	-11719
chteren	-11720
erträge	-11721
früchte	-11722
gründen	-11723
igenter	-11724
jährige	-11725
sprucht	-11726
▁bartës	-11727
▁certif	-11728
▁dëshir	-11729
▁echter	-11730
▁maximi	-11731
▁ndjerë	-11732
▁njihen	-11733
▁padysh	-11734
▁rechte	-11735
▁tiefer	-11736
▁verkür	-11737
etariati	-11738
kontamin	-11739
▁anerken	-11740
▁arsimor	-11741
▁ballkan	-11742
▁delokal	-11743
▁erleben	-11744
▁gewinnt	-11745
▁hajdari	-11746
▁kositje	-11747
▁monetar	-11748
▁nocioni	-11749
▁sllovak	-11750
▁tabelle	-11751
akumulimi	-11752
ansprucht	-11753
basierter	-11754
ontrealit	-11755
teerträge	-11756
wachsenen	-11757
werkstoff	-11758
wirklicht	-11759
ömmlichen	-11760
▁.....121	-11761
▁0,18-0,5	-11762
▁190-2005	-11763
▁1961–200	-11764
▁1980-199	-11765
▁abiotike	-11766
▁aktualis	-11767
▁alarmues	-11768
▁alergjia	-11769
▁amazonas	-11770
▁amazonat	-11771
▁amazonit	-11772
▁amoniumi	-11773
▁anmerken	-11774
▁atlantik	-11775
▁aufteilt	-11776
▁ausbreit	-11777
▁ausbruch	-11778
▁avancimi	-11779
▁avantazh	-11780
▁aziatike	-11781
▁bedrohte	-11782
▁benzinën	-11783
▁benzinës	-11784
▁beratung	-11785
▁bestrebt	-11786
▁betrafen	-11787
▁beurteil	-11788
▁bewerten	-11789
▁bildende	-11790
▁blickwin	-11791
▁bollëkun	-11792
▁brachten	-11793
▁brominat	-11794
▁derdhjes	-11795
▁diabetes	-11796
▁diabetit	-11797
▁differen	-11798
▁diffusen	-11799
3%)	-11800
3%,	-11801
35)	-11802
6,4	-11803
▁33%	-11804
▁490	-11805
▁6,4	-11806
1-6,4	-11807
▁(1,4	-11808
▁(43%	-11809
▁73%,	-11810
geräte	-11811
▁(23%)	-11812
▁1,1-6,4	-11813
▁brazili	-11814
▁effekte	-11815
▁finanzh	-11816
▁mëposht	-11817
ichtesten	-11818
▁bullgari	-11819
▁dinamika	-11820
▁division	-11821
▁dominuar	-11822
▁dominues	-11823
▁dërgohen	-11824
▁dërgojmë	-11825
▁edituesi	-11826
▁edukimin	-11827
▁edukimit	-11828
▁eingriff	-11829
▁elementi	-11830
▁emetuesi	-11831
▁emigrant	-11832
▁emittent	-11833
▁engpässe	-11834
▁entschäd	-11835
▁ergrünen	-11836
▁erlauben	-11837
▁erregern	-11838
▁erzeugen	-11839
▁existenz	-11840
▁extensiv	-11841
▁fillimet	-11842
▁fillimin	-11843
▁finanzkr	-11844
▁fitoplan	-11845
▁fleksibë	-11846
▁forderte	-11847
▁fosforit	-11848
▁freiwill	-11849
▁frekuenc	-11850
▁frytshme	-11851
▁frühsomm	-11852
▁fëmijëve	-11853
▁gebracht	-11854
▁geburten	-11855
▁gebäuden	-11856
▁gedeihen	-11857
▁geistige	-11858
▁genannte	-11859
▁geograph	-11860
▁gesetzte	-11861
▁getätigt	-11862
▁geworden	-11863
▁geändert	-11864
▁gjithsej	-11865
▁groposur	-11866
▁größerem	-11867
▁hartimit	-11868
▁hauptein	-11869
▁herbeige	-11870
▁hingegen	-11871
▁historia	-11872
▁holluese	-11873
▁hormonet	-11874
▁ilustron	-11875
▁imponuar	-11876
▁individu	-11877
▁jüngster	-11878
▁kampania	-11879
▁kanaleve	-11880
▁kolapsit	-11881
▁kollegen	-11882
▁koncepti	-11883
▁konferen	-11884
▁konkrete	-11885
▁korporat	-11886
▁kujdesit	-11887
▁kullotje	-11888
▁kundërve	-11889
▁kürzlich	-11890
▁längeren	-11891
▁mbledhje	-11892
▁mbulimin	-11893
▁mbylljen	-11894
▁mbylljes	-11895
▁mediumet	-11896
▁merkurin	-11897
▁minierat	-11898
▁monoksid	-11899
)(1	-11900
▁22%	-11901
▁hli	-11902
▁comp	-11903
▁grab	-11904
▁panj	-11905
)(19).	-11906
atlant	-11907
fangen	-11908
jekten	-11909
▁2012)	-11910
▁2012,	-11911
▁compo	-11912
▁gjurm	-11913
▁gutes	-11914
▁provë	-11915
▁vögel	-11916
▁wohng	-11917
handels	-11918
marrjen	-11919
projekt	-11920
shikimi	-11921
versorg	-11922
▁biotës	-11923
▁grabit	-11924
▁kleine	-11925
▁mediat	-11926
▁panjoh	-11927
▁platin	-11928
▁pozitë	-11929
▁sipërm	-11930
asanteil	-11931
geordnet	-11932
schlüsse	-11933
strömung	-11934
telangen	-11935
▁brüssel	-11936
▁bërësit	-11937
▁gjurmën	-11938
▁gjurmës	-11939
▁grabitq	-11940
▁harxhim	-11941
▁machbar	-11942
▁mindest	-11943
▁orangen	-11944
▁pavarur	-11945
▁peizazh	-11946
▁pellgut	-11947
▁pendëve	-11948
▁polenit	-11949
▁wohngeg	-11950
▁zehntel	-11951
përfitimi	-11952
▁abschätz	-11953
▁ansteigt	-11954
▁aplikuar	-11955
▁compound	-11956
▁favoriti	-11957
▁hlihtens	-11958
▁kleidung	-11959
▁laufende	-11960
▁leistete	-11961
▁lokalist	-11962
▁lulëzimi	-11963
▁lulëzuar	-11964
▁ndalimin	-11965
▁ndalimit	-11966
▁ndotjeje	-11967
▁ngjeshja	-11968
▁ngjeshur	-11969
▁norvegji	-11970
▁oborreve	-11971
▁offshore	-11972
▁organice	-11973
▁padyshim	-11974
▁pakësuar	-11975
▁panjohur	-11976
▁papritur	-11977
▁pastrimi	-11978
▁patenten	-11979
▁phosphat	-11980
▁polyzykl	-11981
▁poshtësh	-11982
▁praktikë	-11983
▁privater	-11984
▁promovon	-11985
▁pyltaria	-11986
▁përjeton	-11987
▁përshkru	-11988
▁përvojat	-11989
▁qenësore	-11990
▁qëndrojë	-11991
▁radhitës	-11992
▁reaktion	-11993
▁referent	-11994
▁referuar	-11995
▁räumlich	-11996
▁rückgäng	-11997
▁schienen	-11998
▁schimmel	-11999
8%,	-12000
aei	-12001
cbd	-12002
.113	-12003
fpdf	-12004
kmal	-12005
rieb	-12006
äfts	-12007
▁160	-12008
▁6.8	-12009
▁88%	-12010
...13	-12011
nfekt	-12012
okali	-12013
secil	-12014
summe	-12015
ushqy	-12016
wesen	-12017
▁(37)	-12018
▁68%,	-12019
▁baum	-12020
▁fehl	-12021
...136	-12022
erikës	-12023
esenem	-12024
imikës	-12025
kmalpf	-12026
secili	-12027
▁deckt	-12028
▁divid	-12029
▁tagen	-12030
▁çmime	-12031
artikel	-12032
▁abrieb	-12033
▁gelöst	-12034
▁ndeksi	-12035
▁çmimin	-12036
kequshqy	-12037
kmalpfle	-12038
partikel	-12039
▁meereis	-12040
▁mimikës	-12041
▁çmimeve	-12042
nfektuese	-12043
▁amerikës	-12044
▁bauwesen	-12045
▁selektiv	-12046
▁serverit	-12047
▁shikuara	-12048
▁shkaqeve	-12049
▁shpeshta	-12050
▁shpeshtë	-12051
▁shterimi	-12052
▁shterjen	-12053
▁shtëpiak	-12054
▁slovenia	-12055
▁sonstige	-12056
▁speicher	-12057
▁spiegelt	-12058
▁strehimi	-12059
▁störungs	-12060
▁supozime	-12061
▁tankiere	-12062
▁tonazhit	-12063
▁toxische	-12064
▁trashësi	-12065
▁trefisht	-12066
▁trysnive	-12067
▁turizmin	-12068
▁tërhequr	-12069
▁tödliche	-12070
▁udhëzime	-12071
▁umfragen	-12072
▁unbewält	-12073
▁vdekurve	-12074
▁veraltet	-12075
▁verlangs	-12076
▁vetëdija	-12077
▁vorzusch	-12078
▁vërejtur	-12079
▁weighted	-12080
▁weltbank	-12081
▁werdende	-12082
▁windturb	-12083
▁winterst	-12084
▁wirksame	-12085
▁wohnungs	-12086
▁zhdukjen	-12087
▁zhvlerës	-12088
▁zinxhiri	-12089
▁zugvögel	-12090
▁zweifell	-12091
▁ökonomie	-12092
▁östliche	-12093
▁überlast	-12094
-2005/2007	-12095
.........7	-12096
.......121	-12097
/2005/0670	-12098
aktionelle	-12099
▁100%	-12100
...129	-12101
▁1970.	-12102
▁mbron	-12103
lustern	-12104
riebene	-12105
sektori	-12106
ulturen	-12107
▁barrës	-12108
▁nordic	-12109
▁nordse	-12110
▁pyetja	-12111
▁thella	-12112
▁tropen	-12113
▁ungebr	-12114
etrieben	-12115
tszeiten	-12116
unterand	-12117
▁fahrten	-12118
▁origjin	-12119
▁ozeanen	-12120
▁pyetjen	-12121
▁qendrat	-12122
▁sasiore	-12123
▁schnell	-12124
▁sinergj	-12125
gefahrger	-12126
okulturen	-12127
▁1998–200	-12128
▁ammonium	-12129
▁clustern	-12130
▁nordseel	-12131
▁prezenca	-12132
▁pyetjeve	-12133
▁schnelle	-12134
▁ungebrem	-12135
.......129	-12136
arburantet	-12137
bekämpfung	-12138
bereitetes	-12139
borreliose	-12140
chlorierte	-12141
ecological	-12142
einamerika	-12143
endschwier	-12144
eschützten	-12145
gliederung	-12146
governance	-12147
greifenden	-12148
groenlanda	-12149
heimischen	-12150
hergesehen	-12151
hrselektiv	-12152
ierbarkeit	-12153
inalizuara	-12154
klimaziels	-12155
konvention	-12156
krankheits	-12157
kreisläufe	-12158
kretariati	-12159
kömmlichen	-12160
lokalizimi	-12161
oberfläche	-12162
otourismus	-12163
ptionellen	-12164
schikistan	-12165
schottland	-12166
sektorener	-12167
shënuarave	-12168
siatischen	-12169
sprojekten	-12170
sprozesses	-12171
sszenarien	-12172
stabilität	-12173
stromnetze	-12174
stätigkeit	-12175
temperatur	-12176
transporti	-12177
umwandlung	-12178
ungenkrebs	-12179
ungsnormen	-12180
ungssystem	-12181
verglichen	-12182
verschmutz	-12183
vertretend	-12184
vielfachen	-12185
wandlungen	-12186
wärtstrend	-12187
zerstörung	-12188
zhvillimet	-12189
zugleichen	-12190
ëzakonisht	-12191
▁0,18-0,59	-12192
▁1961-2006	-12193
▁1980-19),	-12194
▁1995-2008	-12195
▁1998–2009	-12196
▁2000-2050	-12197
▁2004–2010	-12198
▁2090-2099	-12199
2,5	-12200
gfp	-12201
olcë	-12202
sorb	-12203
▁12%	-12204
▁cfp	-12205
earch	-12206
earer	-12207
günst	-12208
jolcë	-12209
schub	-12210
uajve	-12211
armung	-12212
itësit	-12213
mechan	-12214
nutzen	-12215
rritje	-12216
sorgen	-12217
umulim	-12218
urszur	-12219
▁akute	-12220
▁argët	-12221
▁banka	-12222
▁erdöl	-12223
▁fiton	-12224
▁inclu	-12225
▁misst	-12226
▁paqar	-12227
▁radhë	-12228
▁tipet	-12229
ceptuar	-12230
chanism	-12231
günstig	-12232
kurszur	-12233
landeis	-12234
mekaniz	-12235
rechtsh	-12236
üssigem	-12237
▁akuten	-12238
▁bewohn	-12239
▁erdöls	-12240
▁linjat	-12241
▁livadh	-12242
▁muajve	-12243
▁vjolcë	-12244
arbureve	-12245
globalen	-12246
günstigo	-12247
linearer	-12248
nutzungs	-12249
shkurtër	-12250
umulimit	-12251
▁belange	-12252
▁bilanci	-12253
▁entfern	-12254
▁erdteil	-12255
▁fitojnë	-12256
▁paqartë	-12257
ernährung	-12258
handelten	-12259
hältnisse	-12260
karbureve	-12261
meeresstr	-12262
rechtshin	-12263
wanderung	-12264
▁entfernt	-12265
▁jenseits	-12266
▁livadhet	-12267
▁research	-12268
▁shitësit	-12269
▁tanishëm	-12270
▁vorschub	-12271
kurszurück	-12272
mekanizmat	-12273
▁abbauende	-12274
▁absterben	-12275
▁afërsisht	-12276
▁agjencisë	-12277
▁agjentëve	-12278
▁aktueller	-12279
▁alergjike	-12280
▁alleinige	-12281
▁allergene	-12282
▁anbindung	-12283
▁anergjinë	-12284
▁angelegte	-12285
▁antarktis	-12286
▁argëtimet	-12287
▁atribuuar	-12288
▁aufhebung	-12289
▁ausgleich	-12290
▁ausschuss	-12291
▁autoriale	-12292
▁ballungen	-12293
▁basisjahr	-12294
▁benötigen	-12295
▁beschluss	-12296
▁bestandes	-12297
▁betrieben	-12298
▁beurteilt	-12299
▁7,5	-12300
▁(48%	-12301
▁14,5	-12302
....85	-12303
bedarfs	-12304
bilanzm	-12305
izitäts	-12306
▁ketten	-12307
▁pflanz	-12308
▁totali	-12309
anstiegs	-12310
▁fördern	-12311
▁gjerman	-12312
▁pajisje	-12313
▁pushtet	-12314
▁shkurre	-12315
▁totalin	-12316
beständen	-12317
izipieren	-12318
qeveritar	-12319
▁angazhim	-12320
▁behörden	-12321
▁bulgaria	-12322
▁familien	-12323
▁handelsw	-12324
▁kettenre	-12325
▁pajisjen	-12326
▁shkurret	-12327
▁shkurtra	-12328
▁stresuar	-12329
▁veprohet	-12330
▁vërejtje	-12331
▁zbulojnë	-12332
▁beweidung	-12333
▁bioabfall	-12334
▁biofizike	-12335
▁biphenyle	-12336
▁bisherige	-12337
▁bleifreie	-12338
▁blickwink	-12339
▁braktisja	-12340
▁braktisur	-12341
▁bromierte	-12342
▁computern	-12343
▁computing	-12344
▁datenbank	-12345
▁dauerhaft	-12346
▁dedikuara	-12347
▁derökolog	-12348
▁dinamikën	-12349
▁dividiert	-12350
▁dobësimit	-12351
▁doppelten	-12352
▁dyshimeve	-12353
▁economics	-12354
▁einblicke	-12355
▁einfacher	-12356
▁eingangst	-12357
▁einsetzen	-12358
▁einstufen	-12359
▁elefanten	-12360
▁elementet	-12361
▁endërkomb	-12362
▁entlegene	-12363
▁entsorgen	-12364
▁erbringen	-12365
▁erdbeeren	-12366
▁erdteilen	-12367
▁erfolglos	-12368
▁erforscht	-12369
▁erkennbar	-12370
▁ermitteln	-12371
▁ermittelt	-12372
▁ermöglich	-12373
▁erschöpft	-12374
▁existiert	-12375
▁favorshme	-12376
▁fehlender	-12377
▁fenologji	-12378
▁fillestar	-12379
▁financiar	-12380
▁fleksibil	-12381
▁fleksibël	-12382
▁flussbett	-12383
▁fotovolta	-12384
▁fruchtfol	-12385
▁futprinti	-12386
▁geburtenr	-12387
▁geistigem	-12388
▁gemischte	-12389
▁genaueren	-12390
▁gerechnet	-12391
▁geschäfts	-12392
▁gestaltet	-12393
▁gesündere	-12394
▁gewichtet	-12395
▁grabitqar	-12396
▁groposura	-12397
▁grönlands	-12398
▁hauptlast	-12399
.13	-12400
.134	-12401
äumt	-12402
▁1.1	-12403
cover	-12404
iteni	-12405
säumt	-12406
yklus	-12407
▁gama	-12408
▁htet	-12409
▁kanä	-12410
▁peis	-12411
▁vrim	-12412
▁yoll	-12413
ardiff	-12414
chselt	-12415
dichte	-12416
gelist	-12417
zyklus	-12418
▁1960,	-12419
▁bimët	-12420
▁gamën	-12421
▁partn	-12422
▁usual	-12423
unghaft	-12424
vorläuf	-12425
windung	-12426
▁afërmi	-12427
▁afërta	-12428
▁banimi	-12429
▁banken	-12430
▁behaft	-12431
▁dyjave	-12432
▁htetur	-12433
▁kanale	-12434
▁kanäle	-12435
▁lichte	-12436
▁migrim	-12437
▁mikrob	-12438
▁speise	-12439
▁vrimës	-12440
▁zyklus	-12441
ffiziell	-12442
haltever	-12443
kraftpar	-12444
wechselt	-12445
▁banimin	-12446
▁biznese	-12447
▁cardiff	-12448
▁dritter	-12449
▁potenco	-12450
▁speisef	-12451
centralet	-12452
ffizielle	-12453
halteüber	-12454
prunghaft	-12455
vorläufer	-12456
▁beginnen	-12457
▁behaftet	-12458
▁gjatësia	-12459
▁merkurit	-12460
▁mikrobet	-12461
▁partnern	-12462
▁potencoi	-12463
▁schützen	-12464
▁speziell	-12465
▁zugkraft	-12466
gelisteten	-12467
ungszyklus	-12468
▁einzelner	-12469
▁gjobiteni	-12470
▁hautkrebs	-12471
▁historinë	-12472
▁hollësitë	-12473
▁ikëpyetja	-12474
▁importeve	-12475
▁including	-12476
▁infektive	-12477
▁iniciativ	-12478
▁initiiert	-12479
▁inlandeis	-12480
▁interesim	-12481
▁intermitt	-12482
▁kaliforni	-12483
▁katalitik	-12484
▁keinesweg	-12485
▁kilometer	-12486
▁kilometra	-12487
▁kindersch	-12488
▁klimaschw	-12489
▁klimatikë	-12490
▁knappheit	-12491
▁kompensua	-12492
▁konflikti	-12493
▁konkreten	-12494
▁konkreter	-12495
▁kontakten	-12496
▁kontaktet	-12497
▁konterkar	-12498
▁kreditimi	-12499
apolitik	-12500
intensiv	-12501
stmengen	-12502
terrestr	-12503
teuerung	-12504
▁balanco	-12505
▁höchste	-12506
▁mangelt	-12507
▁zentren	-12508
erwärmung	-12509
▁197–2008	-12510
▁detyrues	-12511
▁ngadaltë	-12512
▁ngadalës	-12513
▁paralind	-12514
▁relevanz	-12515
▁zgjedhim	-12516
chstmengen	-12517
grenzungen	-12518
intensiven	-12519
sverlustes	-12520
▁alterimit	-12521
▁aromatike	-12522
▁definimit	-12523
▁detyrimet	-12524
▁detyruese	-12525
▁fokusimin	-12526
▁fokusohen	-12527
▁kategorie	-12528
▁kommunale	-12529
▁konvertor	-12530
▁kriterien	-12531
▁landkarte	-12532
▁leistungs	-12533
▁lihtensht	-12534
▁lärmpegel	-12535
▁maksimale	-12536
▁marginale	-12537
▁mechanism	-12538
▁mekanizmi	-12539
▁menjëherë	-12540
▁messungen	-12541
▁migratore	-12542
▁migrieren	-12543
▁mischungs	-12544
▁mishëruar	-12545
▁mittelgro	-12546
▁mittlerem	-12547
▁mittleres	-12548
▁moldawien	-12549
▁moshuarve	-12550
▁mëposhtëm	-12551
▁möglichst	-12552
▁ndihmonte	-12553
▁netzwerke	-12554
▁ngjeshura	-12555
▁niedrigen	-12556
▁nitrateve	-12557
▁orientuar	-12558
▁origjinal	-12559
▁origjinës	-12560
▁pakësimit	-12561
▁pandemien	-12562
▁pandemive	-12563
▁paneuropä	-12564
▁parakusht	-12565
▁pasqyruar	-12566
▁peisazhit	-12567
▁peizazhin	-12568
▁peizazhit	-12569
▁peshkatar	-12570
▁pikënisje	-12571
▁platinium	-12572
▁populsinë	-12573
▁portokali	-12574
▁pranveror	-12575
▁pranverën	-12576
▁precedent	-12577
▁prekursor	-12578
▁promovimi	-12579
▁pronësinë	-12580
▁pronësisë	-12581
▁propozime	-12582
▁propozojë	-12583
▁prozesses	-12584
▁përcillen	-12585
▁përfundon	-12586
▁përjetuar	-12587
▁përkrahin	-12588
▁përmendur	-12589
▁përpunuar	-12590
▁përshkall	-12591
▁qarkullim	-12592
▁quantifiz	-12593
▁raubfisch	-12594
▁raumklima	-12595
▁realizuar	-12596
▁referencë	-12597
▁referente	-12598
▁relacioni	-12599
-100	-12600
cafe	-12601
onna	-12602
trau	-12603
▁14,	-12604
▁23%	-12605
▁keq	-12606
engoj	-12607
große	-12608
tonna	-12609
ütter	-12610
▁(15)	-12611
▁blut	-12612
▁blüh	-12613
▁kred	-12614
kannte	-12615
ksikës	-12616
thehet	-12617
▁(44).	-12618
▁(74).	-12619
▁14,5%	-12620
▁ermut	-12621
▁geeig	-12622
▁greif	-12623
▁keqës	-12624
▁kredi	-12625
▁kreuz	-12626
▁pijet	-12627
▁rasch	-12628
▁takon	-12629
▁weißr	-12630
ementen	-12631
tonnage	-12632
trauens	-12633
▁50-100	-12634
▁bulmet	-12635
▁pengoj	-12636
▁skocia	-12637
▁streng	-12638
ementäre	-12639
esselbst	-12640
fischere	-12641
sstraßen	-12642
▁bulmeti	-12643
▁dëshmia	-12644
▁ermutig	-12645
▁kleiner	-12646
▁kthehet	-12647
▁program	-12648
fischerei	-12649
lementäre	-12650
programme	-12651
ändernden	-12652
▁ausfalls	-12653
▁ekuilibr	-12654
▁erkannte	-12655
▁getragen	-12656
▁greifbar	-12657
▁krediten	-12658
▁kreuzung	-12659
▁meksikës	-12660
▁mobiliet	-12661
▁ndërrime	-12662
▁perktheu	-12663
▁stellung	-12664
▁weißruss	-12665
▁wettlauf	-12666
fischereik	-12667
ütterungen	-12668
▁eksportit	-12669
▁elementen	-12670
▁erhaltene	-12671
▁geeignete	-12672
▁keqësohet	-12673
▁ngarkesat	-12674
▁përparimi	-12675
▁ricikluar	-12676
▁riciklues	-12677
▁rishikimi	-12678
▁russische	-12679
▁räumliche	-12680
▁schicksal	-12681
▁schnellen	-12682
▁senkungen	-12683
▁shkarkimi	-12684
▁shkrirjen	-12685
▁shkëputja	-12686
▁sinkenden	-12687
▁sllovakia	-12688
▁sommermon	-12689
▁stacionet	-12690
▁stagnuese	-12691
▁steroidet	-12692
▁stimulimi	-12693
▁strehimit	-12694
▁strengere	-12695
▁suburbane	-12696
▁teknikave	-12697
▁tiefergeh	-12698
▁torfböden	-12699
plani	-12700
–2005	-12701
▁geld	-12702
▁hitz	-12703
etiere	-12704
▁2015,	-12705
▁2090–	-12706
▁estet	-12707
▁estro	-12708
▁geleg	-12709
▁hänge	-12710
▁kippm	-12711
▁schlä	-12712
planten	-12713
tragung	-12714
vertrag	-12715
▁fondit	-12716
▁fëmijë	-12717
▁geldst	-12718
▁hidrat	-12719
▁hitzew	-12720
▁kippen	-12721
▁netton	-12722
▁propor	-12723
▁specie	-12724
▁vdekja	-12725
gierende	-12726
gjedhura	-12727
sendahls	-12728
ugetiere	-12729
versagen	-12730
▁2090–20	-12731
▁eintrag	-12732
▁england	-12733
▁estrogj	-12734
▁hitzest	-12735
▁holzvor	-12736
▁islande	-12737
▁kippmom	-12738
▁mariner	-12739
▁mobilen	-12740
▁nxitjen	-12741
▁nxitjes	-12742
▁schläge	-12743
▁studimi	-12744
▁umgehen	-12745
▁vdekjes	-12746
cializuar	-12747
izajnuara	-12748
jelorusia	-12749
smethoden	-12750
▁190–2005	-12751
▁estetike	-12752
▁fuqizuar	-12753
▁gelegent	-12754
▁mobiltel	-12755
▁nxitësve	-12756
▁punësimi	-12757
▁specifik	-12758
dizajnuara	-12759
inderosion	-12760
investojmë	-12761
rosendahls	-12762
▁2090–2099	-12763
▁abtragung	-12764
▁dështimet	-12765
▁geplanten	-12766
▁hidrateve	-12767
▁islandeze	-12768
▁nettonutz	-12769
▁punësimit	-12770
▁rechtlich	-12771
▁traktatin	-12772
▁trefishtë	-12773
▁trockenen	-12774
▁tropische	-12775
▁tërheqëse	-12776
▁tërthortë	-12777
▁tödlichen	-12778
▁umständen	-12779
▁ungewisse	-12780
▁ursprungs	-12781
▁ursprünge	-12782
▁ushqyerit	-12783
▁ushtrojnë	-12784
▁variieren	-12785
▁vaskulare	-12786
▁verlegung	-12787
▁verlorene	-12788
▁vermehrte	-12789
▁vermerken	-12790
▁vernetzte	-12791
▁versetzen	-12792
▁versorger	-12793
▁verwalten	-12794
▁verzögern	-12795
▁vetëdijes	-12796
▁violetten	-12797
▁vorschlag	-12798
▁vrojtimin	-12799
9);	-12800
cep	-12801
-12;	-12802
cejë	-12803
frei	-12804
wwtp	-12805
▁fao	-12806
fenil	-12807
fenol	-12808
ience	-12809
nvoll	-12810
orfen	-12811
uwwtp	-12812
▁(76)	-12813
befrei	-12814
cephal	-12815
cience	-12816
fenoli	-12817
ërcejë	-12818
▁(49);	-12819
▁hafen	-12820
▁misri	-12821
▁thërr	-12822
fenilet	-12823
▁multim	-12824
▁mëpars	-12825
▁thërrm	-12826
cephalit	-12827
fachlich	-12828
geworfen	-12829
ierendes	-12830
▁hektars	-12831
▁përmasa	-12832
▁science	-12833
▁starker	-12834
ositionen	-12835
vështrimi	-12836
▁bedrohen	-12837
▁breitere	-12838
▁konvergj	-12839
▁legjenda	-12840
▁leistung	-12841
▁mehrfach	-12842
▁përgjatë	-12843
▁sauberen	-12844
▁sauberer	-12845
▁sinnvoll	-12846
▁thërrmij	-12847
cephalitis	-12848
nutzungers	-12849
▁bifenilet	-12850
▁bisfenoli	-12851
▁breiterer	-12852
▁kapërcejë	-12853
▁themeluar	-12854
▁vërshuara	-12855
▁vërtetuar	-12856
▁vëzhgimin	-12857
▁widergesp	-12858
▁wirksamer	-12859
▁wirkungen	-12860
▁wuppertal	-12861
▁zakonshëm	-12862
▁zentraler	-12863
▁zentrales	-12864
▁zgjedhjes	-12865
▁zgjidhjen	-12866
▁zugreifen	-12867
▁zuständen	-12868
▁zuwachses	-12869
▁zvogëlojë	-12870
▁zweitgröß	-12871
▁ähnlicher	-12872
▁ändernden	-12873
▁übergehen	-12874
▁überhaupt	-12875
▁überleben	-12876
.........42	-12877
.........71	-12878
........129	-12879
agkräftiges	-12880
aktionsplan	-12881
antoxizität	-12882
atlantische	-12883
aufkraftpar	-12884
ausgenommen	-12885
ausschusses	-12886
befreiungen	-12887
chlorinated	-12888
chlorkohlen	-12889
dienstleist	-12890
eingebettet	-12891
ertifikimit	-12892
ertourismus	-12893
fizitabbaus	-12894
gesteuerung	-12895
gewichteter	-12896
hergesehene	-12897
iecocktails	-12898
iklorinuara	-12899
▁".	-12900
-15:	-12901
...2	-12902
daly	-12903
drut	-12904
getr	-12905
mmes	-12906
▁13-	-12907
▁7.5	-12908
...25	-12909
aroni	-12910
drück	-12911
mesëm	-12912
robat	-12913
üngem	-12914
▁(13)	-12915
▁(5.5	-12916
▁(64)	-12917
▁13-6	-12918
▁20%.	-12919
▁dimë	-12920
▁puse	-12921
▁rusi	-12922
fürgew	-12923
laroni	-12924
osgetr	-12925
ëshira	-12926
▁13-62	-12927
▁astma	-12928
▁boten	-12929
▁links	-12930
▁lules	-12931
▁troph	-12932
angenen	-12933
lochten	-12934
üngemit	-12935
▁auflös	-12936
▁erdrut	-12937
▁fuqinë	-12938
▁hinder	-12939
▁poloni	-12940
▁rrobat	-12941
kapitujt	-12942
▁dëshira	-12943
▁losgetr	-12944
▁lulesht	-12945
▁parapra	-12946
▁rechten	-12947
fürgewöhn	-12948
ohnheiten	-12949
shmërisht	-12950
▁ausdrück	-12951
▁düngemit	-12952
▁fuqishëm	-12953
▁hervorzu	-12954
▁auflösung	-12955
▁bregdetit	-12956
▁deklaroni	-12957
▁luleshtry	-12958
▁paraprake	-12959
▁paraqiten	-12960
▁regjionin	-12961
▁regjionit	-12962
intelligent	-12963
intensivund	-12964
kennzeichen	-12965
klimawandel	-12966
klimazieles	-12967
kmalpfleger	-12968
kohlenstoff	-12969
komponenten	-12970
kreisläufen	-12971
kulturellen	-12972
lebensräume	-12973
mechanismus	-12974
monitorings	-12975
nachhaltige	-12976
nahmequelle	-12977
nutzungskon	-12978
objektivave	-12979
omanagement	-12980
orientierte	-12981
phologische	-12982
përfitimeve	-12983
ritzmitteln	-12984
schonendere	-12985
schöpfliche	-12986
smassnahmen	-12987
ualifikimin	-12988
umweltdaten	-12989
ungseinheit	-12990
ungsvorgäng	-12991
verbreitung	-12992
verkehrsweg	-12993
verschobene	-12994
versorgungs	-12995
wellenwerte	-12996
zunehmendes	-12997
öchstmengen	-12998
überhauptzu	-12999
übel	-13000
▁0,2	-13001
▁0,6	-13002
▁0,8	-13003
irmon	-13004
ëshum	-13005
▁0,26	-13006
▁kthy	-13007
▁slog	-13008
firmon	-13009
freund	-13010
gistan	-13011
odeste	-13012
tëshum	-13013
varfër	-13014
ëshojë	-13015
▁harta	-13016
▁hartë	-13017
▁penal	-13018
▁pikës	-13019
elektro	-13020
tëshumë	-13021
ugitive	-13022
▁begann	-13023
▁fracht	-13024
▁kopsht	-13025
▁kthyer	-13026
▁pikash	-13027
▁pikave	-13028
▁tashme	-13029
▁valide	-13030
energjia	-13031
ettbewer	-13032
irgistan	-13033
lichsein	-13034
▁beobach	-13035
▁divergj	-13036
▁festleg	-13037
▁hundert	-13038
▁kalkung	-13039
▁lëshojë	-13040
▁modeste	-13041
▁ngrohje	-13042
▁nxitëse	-13043
▁reformë	-13044
▁slogani	-13045
▁verläss	-13046
affenheit	-13047
ettbewerb	-13048
inatyrore	-13049
leitmarkt	-13050
▁erschien	-13051
▁fugitive	-13052
▁pranojnë	-13053
▁reformat	-13054
▁shtresës	-13055
▁zhvillua	-13056
▁zvogëlon	-13057
fahrzeugen	-13058
▁erschwert	-13059
▁festlegte	-13060
▁kirgistan	-13061
▁konfirmon	-13062
▁kopshtari	-13063
▁penalisht	-13064
▁publikime	-13065
▁publikimi	-13066
▁përjashto	-13067
▁regjional	-13068
▁shpenzime	-13069
▁shpenzuar	-13070
▁tierische	-13071
▁versiegel	-13072
freundliche	-13073
überwachung	-13074
ützlichsein	-13075
▁1997-2008,	-13076
▁2000–2006(	-13077
▁2006/2007,	-13078
▁abgenommen	-13079
▁absorbimit	-13080
▁adsorption	-13081
▁akumulimit	-13082
▁alleingang	-13083
▁amvisëritë	-13084
▁analysiert	-13085
▁anfallende	-13086
▁anfälliger	-13087
▁angazhimin	-13088
▁angazhohet	-13089
▁angefangen	-13090
▁anhaltende	-13091
▁anzuzeigen	-13092
▁arkitektët	-13093
▁arsyetimin	-13094
▁asgjësohen	-13095
▁atlantikun	-13096
▁atmosferik	-13097
▁ausweitung	-13098
▁balancojnë	-13099
elev	-13100
plet	-13101
züge	-13102
atusi	-13103
elegt	-13104
kokte	-13105
relev	-13106
valet	-13107
▁pamb	-13108
▁seko	-13109
kanaus	-13110
▁(31).	-13111
▁(78).	-13112
attform	-13113
esëmarr	-13114
geständ	-13115
gestütz	-13116
netzung	-13117
pleting	-13118
statusi	-13119
▁ambien	-13120
▁danach	-13121
▁fehler	-13122
▁gebühr	-13123
▁kuadri	-13124
▁nxehta	-13125
▁zweier	-13126
engelegt	-13127
koktejet	-13128
ulkanaus	-13129
vollzieh	-13130
▁frühwar	-13131
▁gebührt	-13132
▁hormone	-13133
▁lëvizet	-13134
▁pflügen	-13135
▁riciklo	-13136
▁volumen	-13137
▁vorzüge	-13138
atërrimin	-13139
esëmarrja	-13140
flächiger	-13141
gestützte	-13142
relevante	-13143
zeitdaten	-13144
▁ambiente	-13145
▁deponieg	-13146
▁deponien	-13147
▁deponitë	-13148
▁erwiesen	-13149
▁gebrauch	-13150
▁jetuarit	-13151
▁kuptohet	-13152
▁migrimet	-13153
▁pambrojt	-13154
▁sanitare	-13155
▁sekondar	-13156
▁shkencën	-13157
▁shkencës	-13158
ckengelegt	-13159
splattform	-13160
vernetzung	-13161
▁depleting	-13162
▁einwirken	-13163
▁fördernde	-13164
▁gebraucht	-13165
▁kürzliche	-13166
▁lëvizshme	-13167
▁mbeturina	-13168
▁qeverisje	-13169
▁shembujve	-13170
▁vendimtar	-13171
▁vulkanaus	-13172
▁zugeständ	-13173
vollziehbar	-13174
▁baugründen	-13175
▁beachtlich	-13176
▁begrenzten	-13177
▁bekenntnis	-13178
▁bekräftigt	-13179
▁bekämpfung	-13180
▁beobachten	-13181
▁beratungen	-13182
▁besprochen	-13183
▁bestehende	-13184
▁bestäubung	-13185
▁betrachten	-13186
▁bleifreiem	-13187
▁bleifreies	-13188
▁blühzeiten	-13189
▁blütenbest	-13190
▁deponiegas	-13191
▁detyrimeve	-13192
▁diskutiert	-13193
▁divergjenc	-13194
▁dizajnimin	-13195
▁drenazhuar	-13196
▁edelmetall	-13197
▁einbindung	-13198
▁eindringen	-13199
mms	-13200
▁(52	-13201
▁lay	-13202
▁plu	-13203
-2009	-13204
liegt	-13205
masse	-13206
zwang	-13207
▁azia	-13208
▁bari	-13209
▁gjeo	-13210
▁layo	-13211
▁plak	-13212
▁plus	-13213
▁shfa	-13214
dukimi	-13215
reimal	-13216
▁(55).	-13217
▁(59).	-13218
▁(70).	-13219
▁(77).	-13220
▁autos	-13221
▁azinë	-13222
▁human	-13223
▁jugor	-13224
▁masse	-13225
ekonomi	-13226
enommen	-13227
ukommen	-13228
zwangsl	-13229
▁bemess	-13230
▁layout	-13231
▁pluhur	-13232
amentimi	-13233
bedenken	-13234
gehenden	-13235
zukommen	-13236
▁detaill	-13237
▁dreimal	-13238
▁mbrohen	-13239
▁pjellor	-13240
▁plakjes	-13241
▁shfaqet	-13242
produkimi	-13243
▁dobishëm	-13244
▁erzeuger	-13245
▁geringer	-13246
▁kërcënon	-13247
▁soziales	-13248
▁tejkaloj	-13249
▁tejkalon	-13250
kapitullin	-13251
rregulluar	-13252
▁1998-2009	-13253
▁bemessung	-13254
▁entkoppel	-13255
▁funksione	-13256
▁größenord	-13257
▁kërcënuar	-13258
▁ngarkesën	-13259
▁preislich	-13260
▁weitergeh	-13261
▁zukünftig	-13262
andamentimi	-13263
reprodukimi	-13264
▁angenommen	-13265
▁besonderes	-13266
▁eingeschle	-13267
▁einkommens	-13268
▁eisschilds	-13269
▁eksportuar	-13270
▁eksportues	-13271
▁ekstraktim	-13272
▁emittenten	-13273
▁endenergie	-13274
▁endokrinen	-13275
▁endokriner	-13276
▁enthaltene	-13277
▁entkoppelt	-13278
▁erdmetalle	-13279
▁erdrutsche	-13280
▁ernsthafte	-13281
▁erwarteten	-13282
▁erwägungen	-13283
▁estrogjene	-13284
▁existieren	-13285
▁expliziten	-13286
▁exportiert	-13287
▁fenologjia	-13288
▁fertigungs	-13289
▁festgelegt	-13290
▁flugreisen	-13291
▁flugrouten	-13292
▁freigesetz	-13293
▁frekuencës	-13294
▁gemäßigten	-13295
▁geringeres	-13296
▁geschaffen	-13297
▁geschichte	-13298
▁geschwächt	-13299
brü	-13300
mijë	-13301
▁1,2	-13302
metan	-13303
uffer	-13304
▁abbr	-13305
beuten	-13306
brüche	-13307
ferten	-13308
feucht	-13309
ffekte	-13310
fluten	-13311
wieder	-13312
▁inwie	-13313
▁krizë	-13314
▁shënj	-13315
▁tretë	-13316
▁vermi	-13317
lindjes	-13318
mfluten	-13319
neidung	-13320
oningen	-13321
prozent	-13322
teprica	-13323
▁autark	-13324
▁azotik	-13325
▁belang	-13326
▁formal	-13327
▁manche	-13328
▁oqeane	-13329
▁puffer	-13330
▁turist	-13331
seffekte	-13332
▁bodenfe	-13333
▁formuar	-13334
▁histori	-13335
▁oqeanik	-13336
▁synimin	-13337
▁synojnë	-13338
▁vullnet	-13339
▁überwie	-13340
ausbeuten	-13341
einbrüche	-13342
reinigung	-13343
urmfluten	-13344
▁abbrucht	-13345
▁formojnë	-13346
▁mundëson	-13347
▁planetin	-13348
▁planetës	-13349
▁pranverë	-13350
▁shënjues	-13351
schneidung	-13352
unksionale	-13353
▁erzeugung	-13354
▁groningen	-13355
▁identifik	-13356
▁inwieweit	-13357
▁kostensen	-13358
▁künftiger	-13359
▁lieferten	-13360
▁mesataret	-13361
▁njohuritë	-13362
▁planetare	-13363
▁ushqimore	-13364
▁verminder	-13365
prozentuale	-13366
▁bodenfeuch	-13367
▁gesünderes	-13368
▁gewonnenen	-13369
▁gewöhnlich	-13370
▁gezieltere	-13371
▁geänderter	-13372
▁gjeneratat	-13373
▁gjithsejtë	-13374
▁gleitender	-13375
▁gletschern	-13376
▁gletscherv	-13377
▁grasanteil	-13378
▁grenzwerte	-13379
▁hapësirave	-13380
▁hauptziele	-13381
▁heimischen	-13382
▁herkunftsl	-13383
▁hervorzuhe	-13384
▁hitzestres	-13385
▁holzvorrat	-13386
▁hulumtohen	-13387
▁häufigeren	-13388
▁häufigsten	-13389
▁ilustrimit	-13390
▁ilustrohet	-13391
▁immissions	-13392
▁impliziert	-13393
▁importeure	-13394
▁individual	-13395
▁infektions	-13396
▁inhaltsver	-13397
▁initiative	-13398
▁inkurajojë	-13399
fond	-13400
kreu	-13401
tokë	-13402
▁17,	-13403
▁uba	-13404
flora	-13405
fonds	-13406
inahe	-13407
kohës	-13408
parks	-13409
ränat	-13410
staub	-13411
ugina	-13412
▁5001	-13413
▁somm	-13414
samung	-13415
zenari	-13416
▁(42).	-13417
▁(62).	-13418
▁asnjë	-13419
▁asort	-13420
▁beide	-13421
▁bruks	-13422
▁faqes	-13423
▁pikëv	-13424
▁rasti	-13425
▁staub	-13426
▁tritt	-13427
iariden	-13428
kreuzen	-13429
obakter	-13430
▁analit	-13431
▁analyt	-13432
▁dürfte	-13433
▁jetesë	-13434
▁lasten	-13435
▁lugina	-13436
▁prekin	-13437
▁pränat	-13438
▁raster	-13439
▁rastin	-13440
▁shtron	-13441
glizhuar	-13442
kombëtar	-13443
sproblem	-13444
▁5001140	-13445
▁asortim	-13446
▁beinahe	-13447
▁bruksel	-13448
▁gestalt	-13449
▁mbulesë	-13450
▁szenari	-13451
▁teknika	-13452
▁zgjerim	-13453
alerweise	-13454
anobakter	-13455
sprobleme	-13456
ungsfonds	-13457
▁erfolgen	-13458
▁ngarkesë	-13459
▁regional	-13460
▁schwache	-13461
▁stellten	-13462
malerweise	-13463
yanobakter	-13464
▁500114013	-13465
▁analitike	-13466
▁hausstaub	-13467
▁lastenver	-13468
▁monitoron	-13469
▁pikëvësht	-13470
▁rotacioni	-13471
▁varfërimi	-13472
▁varfëruar	-13473
▁500114013,	-13474
▁asortiment	-13475
▁derzeitige	-13476
▁financuara	-13477
▁fruchtbare	-13478
▁gefährlich	-13479
▁innovative	-13480
▁integrated	-13481
▁intelligen	-13482
▁intervalet	-13483
▁irgendwann	-13484
▁jahreszeit	-13485
▁jesëmarrja	-13486
▁kanalizime	-13487
▁koherencën	-13488
▁kohärenten	-13489
▁kommunalab	-13490
▁komunikimi	-13491
▁konflikten	-13492
▁konfliktet	-13493
▁konsumator	-13494
▁kontinente	-13495
▁kontinents	-13496
▁konvention	-13497
▁konvertuar	-13498
▁kopenhagës	-13499
40).	-13500
aubw	-13501
lleg	-13502
phib	-13503
phän	-13504
udem	-13505
ählt	-13506
(40).	-13507
ammel	-13508
brand	-13509
eiden	-13510
laubw	-13511
ammeln	-13512
eltene	-13513
gassen	-13514
omancë	-13515
▁2006;	-13516
▁anzuk	-13517
▁anzur	-13518
▁anzut	-13519
▁dahin	-13520
▁erwor	-13521
▁illeg	-13522
▁polic	-13523
▁tiere	-13524
▁zählt	-13525
eidenen	-13526
flüssen	-13527
fomancë	-13528
fähiger	-13529
laubwür	-13530
phibien	-13531
▁anzukn	-13532
▁aponia	-13533
▁arrijë	-13534
▁grupit	-13535
▁heiden	-13536
▁tërësi	-13537
arbeitet	-13538
ckgassen	-13539
laubwürd	-13540
▁anzuknü	-13541
▁aufschl	-13542
▁grupimi	-13543
▁kthesës	-13544
▁privata	-13545
▁sammeln	-13546
▁seltene	-13547
▁steinen	-13548
▁verwalt	-13549
ierarbeit	-13550
▁erworben	-13551
▁fshehura	-13552
▁gebäudem	-13553
▁illegale	-13554
▁mesdheun	-13555
▁policikl	-13556
▁rrjedhje	-13557
▁rrjedhës	-13558
▁rëndomta	-13559
▁strassen	-13560
▁wiederan	-13561
einflüssen	-13562
phänologie	-13563
▁amphibien	-13564
▁anzuknüpf	-13565
▁glaubwürd	-13566
▁krijuesit	-13567
▁privataut	-13568
▁waldbrand	-13569
▁zvogëlime	-13570
▁aufschluss	-13571
▁erarbeitet	-13572
▁keineswegs	-13573
▁kostenwirk	-13574
▁kreislaufs	-13575
▁kripëzimit	-13576
▁kultivimin	-13577
▁landfläche	-13578
▁lebensstil	-13579
▁lehtësuese	-13580
▁mangelhaft	-13581
▁mangelnder	-13582
▁mangelndes	-13583
▁margjinale	-13584
▁margjinave	-13585
▁marktdruck	-13586
▁maximieren	-13587
▁mehrfacher	-13588
▁mesatareve	-13589
▁migrations	-13590
▁mijëvjeçar	-13591
▁miliardësh	-13592
▁mineraleve	-13593
▁minimieren	-13594
▁mischungen	-13595
▁mishëruara	-13596
▁mitwirkung	-13597
▁multimodel	-13598
▁ndërlidhen	-13599
ktej	-13600
kulo	-13601
ìmet	-13602
▁(74	-13603
▁6.3	-13604
▁orë	-13605
gemäß	-13606
igjim	-13607
igjja	-13608
▁borë	-13609
▁qarë	-13610
enzorë	-13611
gemäße	-13612
igjien	-13613
igjore	-13614
rigjim	-13615
tacion	-13616
▁(29).	-13617
▁drast	-13618
▁süden	-13619
▁trond	-13620
chniken	-13621
gegeben	-13622
gjigjja	-13623
kulohet	-13624
leitern	-13625
tacione	-13626
ungsrat	-13627
zugeben	-13628
▁koktej	-13629
▁numrat	-13630
▁rrallë	-13631
▁zeigte	-13632
igjienës	-13633
national	-13634
▁adekuat	-13635
▁annahme	-13636
▁emetime	-13637
▁hierark	-13638
▁ligjore	-13639
▁mushkër	-13640
▁nxjerrë	-13641
▁senzorë	-13642
▁thelbin	-13643
▁trondit	-13644
achgemäße	-13645
ökosystem	-13646
▁aspektin	-13647
▁emetimin	-13648
▁mungojnë	-13649
▁nxjerrje	-13650
▁nxjerrën	-13651
përgjigjja	-13652
stechniken	-13653
ßenpolitik	-13654
▁divizioni	-13655
▁drastisch	-13656
▁folgenden	-13657
▁hierarkie	-13658
▁higjienës	-13659
▁korrigjim	-13660
▁nxjerrura	-13661
▁prodhìmet	-13662
▁tronditin	-13663
austausches	-13664
milcherzeug	-13665
ökosystemen	-13666
▁angegangen	-13667
▁aufzugeben	-13668
▁einteilung	-13669
▁kalkulohet	-13670
▁konkurrent	-13671
▁montrealit	-13672
▁mushkërive	-13673
▁ndërrimeve	-13674
▁ndërtesave	-13675
▁ndërthurja	-13676
▁ndërtimtar	-13677
▁ndërvarura	-13678
▁neuerdings	-13679
▁ngjashmëri	-13680
▁nächtliche	-13681
▁obergrenze	-13682
▁offizielle	-13683
▁omunitetit	-13684
▁orientimin	-13685
▁orientuara	-13686
▁pabarazisë	-13687
▁paligjshme	-13688
▁pambrojtur	-13689
▁panjohurës	-13690
▁peizazheve	-13691
▁perceptuar	-13692
▁perfomancë	-13693
▁performanc	-13694
▁photovolta	-13695
▁pikëvështr	-13696
▁planktonit	-13697
▁pllenuesve	-13698
▁poshtëshën	-13699
ibe	-13700
mbh	-13701
mbi	-13702
pop	-13703
ajër	-13704
arbt	-13705
fibe	-13706
grid	-13707
hekt	-13708
ritë	-13709
tegr	-13710
usin	-13711
zbat	-13712
▁erb	-13713
▁ksp	-13714
busin	-13715
lisht	-13716
popul	-13717
▁auth	-13718
▁entl	-13719
▁gmbh	-13720
▁liss	-13721
▁pion	-13722
▁rech	-13723
▁test	-13724
allten	-13725
arbtön	-13726
ftigen	-13727
integr	-13728
ränden	-13729
studie	-13730
unität	-13731
▁bilth	-13732
▁kspoz	-13733
▁torfm	-13734
▁überw	-13735
arbtöne	-13736
hektarë	-13737
lishtja	-13738
munität	-13739
tëritja	-13740
uidelin	-13741
ustritë	-13742
änderte	-13743
▁amfibe	-13744
▁author	-13745
▁desert	-13746
▁globus	-13747
▁lejeve	-13748
▁lissab	-13749
▁modern	-13750
▁torfmo	-13751
▁vajrat	-13752
▁vazhdo	-13753
▁vetura	-13754
▁vorder	-13755
business	-13756
zbatimin	-13757
ërbimeve	-13758
▁bilthov	-13759
▁bränden	-13760
▁entlang	-13761
▁erbring	-13762
▁kthimin	-13763
▁qytetër	-13764
▁rechnen	-13765
▁rrjetin	-13766
▁testimi	-13767
▁vorgest	-13768
▁vorüber	-13769
▁wenigen	-13770
bliebenen	-13771
schonende	-13772
uidelines	-13773
▁erbringt	-13774
▁farbtöne	-13775
▁formimin	-13776
▁heftigen	-13777
▁lissabon	-13778
▁ngjashëm	-13779
versalzung	-13780
veränderte	-13781
▁bilthoven	-13782
▁geballten	-13783
▁hërbimeve	-13784
▁immunität	-13785
▁kampanien	-13786
▁kspozimet	-13787
▁kullotave	-13788
▁modernste	-13789
▁tatsachen	-13790
▁torfmoore	-13791
▁überschre	-13792
integration	-13793
▁anglishtja	-13794
▁desertifik	-13795
▁gefangenen	-13796
▁guidelines	-13797
▁industritë	-13798
▁prinzipien	-13799
bin	-13800
gap	-13801
mod	-13802
ods	-13803
▁lü	-13804
ajte	-13805
hitë	-13806
iqet	-13807
uere	-13808
arsch	-13809
binet	-13810
elles	-13811
ellte	-13812
hthal	-13813
tojnë	-13814
uhitë	-13815
ulimi	-13816
uropä	-13817
▁erze	-13818
▁letó	-13819
▁lüft	-13820
ashjes	-13821
einbar	-13822
endjen	-13823
jeshur	-13824
marsch	-13825
modell	-13826
uerein	-13827
▁letón	-13828
▁senke	-13829
▁tipar	-13830
ategier	-13831
etische	-13832
orantet	-13833
▁angehä	-13834
▁ndahen	-13835
▁phthal	-13836
▁poleve	-13837
alizimit	-13838
gjendjen	-13839
ngjeshur	-13840
përtojnë	-13841
[...]
